{
  "vocab": {
    "[UNK]": 0,
    "[BOS]": 1,
    "[EOS]": 2,
    "[PAD]": 3,
    "[USER]": 4,
    "[FACTS]": 5,
    "[ANSWER]": 6,
    "▁d": 7,
    "es": 8,
    "on": 9,
    "en": 10,
    "▁l": 11,
    "▁p": 12,
    "ou": 13,
    "er": 14,
    "an": 15,
    "re": 16,
    "▁de": 17,
    "▁c": 18,
    "▁s": 19,
    "ti": 20,
    "▁a": 21,
    "is": 22,
    "in": 23,
    "le": 24,
    "te": 25,
    "qu": 26,
    "ar": 27,
    "et": 28,
    "▁m": 29,
    "ent": 30,
    "ur": 31,
    "it": 32,
    "un": 33,
    "or": 34,
    "▁v": 35,
    "il": 36,
    "tion": 37,
    "▁C": 38,
    "▁t": 39,
    "our": 40,
    "▁la": 41,
    "▁et": 42,
    "▁f": 43,
    "▁L": 44,
    "om": 45,
    "al": 46,
    "▁à": 47,
    "▁le": 48,
    "ra": 49,
    "▁P": 50,
    "▁n": 51,
    "▁S": 52,
    "el": 53,
    "▁qu": 54,
    "▁un": 55,
    "ch": 56,
    "▁en": 57,
    "ro": 58,
    "▁A": 59,
    "ri": 60,
    "us": 61,
    "ment": 62,
    "▁M": 63,
    "as": 64,
    "▁b": 65,
    "ce": 66,
    "ré": 67,
    "▁des": 68,
    "au": 69,
    "▁2": 70,
    "▁les": 71,
    "ant": 72,
    "▁D": 73,
    "▁1": 74,
    "ag": 75,
    "ous": 76,
    "ir": 77,
    "ve": 78,
    "▁B": 79,
    "os": 80,
    "est": 81,
    "ation": 82,
    "me": 83,
    "ans": 84,
    "ie": 85,
    "ont": 86,
    "▁pour": 87,
    "at": 88,
    "▁j": 89,
    "..": 90,
    "▁au": 91,
    "ol": 92,
    "▁T": 93,
    "ot": 94,
    "que": 95,
    "ne": 96,
    "▁par": 97,
    "▁du": 98,
    "de": 99,
    "▁E": 100,
    "▁g": 101,
    "▁R": 102,
    "ai": 103,
    "▁é": 104,
    "▁F": 105,
    "ci": 106,
    "▁-": 107,
    "se": 108,
    "li": 109,
    "▁(": 110,
    "▁:": 111,
    "ais": 112,
    "si": 113,
    "res": 114,
    "di": 115,
    "▁dé": 116,
    "▁ch": 117,
    "eu": 118,
    "ac": 119,
    "▁sur": 120,
    "am": 121,
    "té": 122,
    "▁re": 123,
    "▁V": 124,
    "▁pl": 125,
    "01": 126,
    "▁pro": 127,
    "▁N": 128,
    "▁com": 129,
    "▁in": 130,
    "ons": 131,
    "ab": 132,
    "▁une": 133,
    "▁dans": 134,
    "▁G": 135,
    "▁I": 136,
    "im": 137,
    "00": 138,
    "▁ré": 139,
    "les": 140,
    "▁est": 141,
    "ain": 142,
    "ff": 143,
    "▁h": 144,
    "ers": 145,
    "age": 146,
    "ité": 147,
    "▁e": 148,
    "ée": 149,
    "oi": 150,
    "ran": 151,
    "▁que": 152,
    "▁J": 153,
    "pp": 154,
    "▁H": 155,
    "tu": 156,
    "ter": 157,
    "▁pas": 158,
    "▁con": 159,
    "vec": 160,
    "ille": 161,
    "ig": 162,
    "▁r": 163,
    "ouv": 164,
    "▁qui": 165,
    "▁se": 166,
    "tre": 167,
    "ul": 168,
    "aire": 169,
    "▁201": 170,
    "▁o": 171,
    "ic": 172,
    "tes": 173,
    "urs": 174,
    "▁vous": 175,
    "ait": 176,
    "▁avec": 177,
    "elle": 178,
    "end": 179,
    "...": 180,
    "▁Le": 181,
    "▁plus": 182,
    "ge": 183,
    "ui": 184,
    "oir": 185,
    "ue": 186,
    "onn": 187,
    "▁3": 188,
    "che": 189,
    "▁Ch": 190,
    "ale": 191,
    "ine": 192,
    "pe": 193,
    "otre": 194,
    "ier": 195,
    "ort": 196,
    "▁O": 197,
    "oc": 198,
    "em": 199,
    "és": 200,
    "▁ou": 201,
    "ois": 202,
    "ès": 203,
    "ère": 204,
    "and": 205,
    "ces": 206,
    "▁La": 207,
    "um": 208,
    "ques": 209,
    "ien": 210,
    "▁tou": 211,
    "▁U": 212,
    "ction": 213,
    "▁ce": 214,
    "ad": 215,
    "og": 216,
    "iv": 217,
    "▁tr": 218,
    "id": 219,
    "ux": 220,
    "▁av": 221,
    "pr": 222,
    "bre": 223,
    "uis": 224,
    "ure": 225,
    "ite": 226,
    "ap": 227,
    "ati": 228,
    "ette": 229,
    "ique": 230,
    "aux": 231,
    "av": 232,
    "ub": 233,
    "▁pré": 234,
    "lé": 235,
    "ate": 236,
    "▁4": 237,
    "orm": 238,
    "mp": 239,
    "▁ex": 240,
    "▁mo": 241,
    "▁il": 242,
    "op": 243,
    "▁ne": 244,
    "ées": 245,
    "ise": 246,
    "▁Les": 247,
    "▁an": 248,
    "able": 249,
    "ing": 250,
    "▁pr": 251,
    "▁5": 252,
    "une": 253,
    "▁En": 254,
    "ance": 255,
    "ay": 256,
    "éri": 257,
    "ble": 258,
    "▁votre": 259,
    "ill": 260,
    "▁je": 261,
    "ct": 262,
    "pos": 263,
    "ence": 264,
    "du": 265,
    "▁W": 266,
    "ard": 267,
    "▁di": 268,
    "▁te": 269,
    "▁sont": 270,
    "air": 271,
    "▁De": 272,
    "ér": 273,
    "▁!": 274,
    "ins": 275,
    "ut": 276,
    "entre": 277,
    "▁son": 278,
    "▁ra": 279,
    "ist": 280,
    "▁ac": 281,
    "▁ser": 282,
    "ations": 283,
    "mes": 284,
    "▁|": 285,
    "én": 286,
    "▁mais": 287,
    "▁mar": 288,
    "▁0": 289,
    "ion": 290,
    "ours": 291,
    "▁tra": 292,
    "ts": 293,
    "▁»": 294,
    "ace": 295,
    "▁peu": 296,
    "▁K": 297,
    "▁comp": 298,
    "▁«": 299,
    "▁aux": 300,
    "ures": 301,
    "ants": 302,
    "oy": 303,
    "ss": 304,
    "ond": 305,
    "erm": 306,
    "ouve": 307,
    "▁Par": 308,
    "ten": 309,
    "aires": 310,
    "ph": 311,
    "▁im": 312,
    "▁ar": 313,
    "co": 314,
    "com": 315,
    "▁\"": 316,
    "▁nous": 317,
    "ob": 318,
    "▁In": 319,
    "▁cont": 320,
    "st": 321,
    "▁6": 322,
    "teur": 323,
    "ét": 324,
    "ments": 325,
    "▁sa": 326,
    "he": 327,
    "ert": 328,
    "tel": 329,
    "ens": 330,
    "▁su": 331,
    "ord": 332,
    "tic": 333,
    "▁comm": 334,
    "tin": 335,
    "▁Il": 336,
    "▁app": 337,
    "▁Mar": 338,
    "onne": 339,
    "ern": 340,
    "alis": 341,
    "▁al": 342,
    "▁/": 343,
    "lis": 344,
    "ors": 345,
    "▁so": 346,
    "▁?": 347,
    "éc": 348,
    "par": 349,
    "tique": 350,
    "▁7": 351,
    "tif": 352,
    "▁st": 353,
    "all": 354,
    "sion": 355,
    "iè": 356,
    "ture": 357,
    "▁Com": 358,
    "ici": 359,
    "▁dis": 360,
    "ail": 361,
    "▁w": 362,
    "aut": 363,
    "▁y": 364,
    "▁ét": 365,
    "▁me": 366,
    "tions": 367,
    "▁cette": 368,
    "vi": 369,
    "▁bien": 370,
    "cher": 371,
    "ang": 372,
    "ez": 373,
    "▁cons": 374,
    "être": 375,
    "▁Re": 376,
    "ess": 377,
    "▁pe": 378,
    "▁tout": 379,
    "▁8": 380,
    "oin": 381,
    "▁Fran": 382,
    "▁mon": 383,
    "ass": 384,
    "▁Q": 385,
    "éra": 386,
    "▁pos": 387,
    "▁19": 388,
    "▁déc": 389,
    "ente": 390,
    "jet": 391,
    "▁car": 392,
    "ign": 393,
    "oire": 394,
    "eux": 395,
    "tr": 396,
    "pl": 397,
    "▁Je": 398,
    "▁Pour": 399,
    "aus": 400,
    "its": 401,
    "▁9": 402,
    "ubli": 403,
    "alité": 404,
    "ouver": 405,
    "ég": 406,
    "▁aut": 407,
    "▁An": 408,
    "tt": 409,
    "oup": 410,
    "▁pers": 411,
    "201": 412,
    "▁k": 413,
    "▁fait": 414,
    "endre": 415,
    "ib": 416,
    "ex": 417,
    "ages": 418,
    "mi": 419,
    "ES": 420,
    "elles": 421,
    "aine": 422,
    "lan": 423,
    "▁entre": 424,
    "eau": 425,
    "oo": 426,
    "ver": 427,
    "▁on": 428,
    "▁pri": 429,
    "ussi": 430,
    "ER": 431,
    "port": 432,
    "▁ses": 433,
    "▁10": 434,
    "form": 435,
    "20": 436,
    "out": 437,
    "uti": 438,
    "▁parti": 439,
    "▁Un": 440,
    "ents": 441,
    "▁ont": 442,
    "ON": 443,
    "ser": 444,
    "ven": 445,
    "▁faire": 446,
    "rand": 447,
    "▁été": 448,
    "ong": 449,
    "ec": 450,
    "▁–": 451,
    "if": 452,
    "▁comme": 453,
    "▁20": 454,
    "ourn": 455,
    "▁ma": 456,
    "tement": 457,
    "oit": 458,
    "ême": 459,
    "eur": 460,
    "▁for": 461,
    "ante": 462,
    "▁très": 463,
    "onc": 464,
    "▁,": 465,
    "▁ph": 466,
    "▁ann": 467,
    "ow": 468,
    "▁trav": 469,
    "ire": 470,
    ").": 471,
    "▁Ar": 472,
    "▁ren": 473,
    "élé": 474,
    "tiv": 475,
    "▁am": 476,
    "▁cl": 477,
    "one": 478,
    "▁inter": 479,
    "ales": 480,
    "▁aussi": 481,
    "▁res": 482,
    "AN": 483,
    "▁Al": 484,
    "▁pre": 485,
    "emme": 486,
    "▁si": 487,
    "▁col": 488,
    "éd": 489,
    "▁fin": 490,
    "▁ad": 491,
    "enti": 492,
    "▁200": 493,
    "▁min": 494,
    "près": 495,
    "▁sou": 496,
    "per": 497,
    "▁co": 498,
    "),": 499,
    "▁gra": 500,
    "ats": 501,
    "cc": 502,
    "▁deux": 503,
    "mbre": 504,
    "oule": 505,
    "ies": 506,
    "alement": 507,
    "amp": 508,
    "▁prof": 509,
    "ann": 510,
    "▁produ": 511,
    "ém": 512,
    "▁vos": 513,
    "iss": 514,
    "▁>": 515,
    "▁Pro": 516,
    "▁perm": 517,
    "agn": 518,
    "▁éc": 519,
    "▁leur": 520,
    "pé": 521,
    "▁Et": 522,
    "▁tous": 523,
    "▁personn": 524,
    "igne": 525,
    "▁être": 526,
    "▁sui": 527,
    "▁nom": 528,
    "ème": 529,
    "ide": 530,
    "od": 531,
    "ru": 532,
    "tra": 533,
    "▁€": 534,
    "auss": 535,
    "EN": 536,
    "▁Pl": 537,
    "▁or": 538,
    "▁15": 539,
    "▁France": 540,
    "▁Qu": 541,
    "UR": 542,
    "▁sans": 543,
    "▁12": 544,
    "tis": 545,
    "▁peti": 546,
    "▁peut": 547,
    "els": 548,
    "10": 549,
    "▁gr": 550,
    "omme": 551,
    "▁ans": 552,
    "are": 553,
    "mps": 554,
    "▁Vous": 555,
    "▁off": 556,
    "lement": 557,
    "▁notre": 558,
    "▁conf": 559,
    "▁propos": 560,
    "ke": 561,
    "AR": 562,
    "app": 563,
    "sent": 564,
    "use": 565,
    "été": 566,
    "▁Au": 567,
    "iques": 568,
    "▁[": 569,
    "bl": 570,
    "fin": 571,
    "cont": 572,
    "ches": 573,
    "utilis": 574,
    "qui": 575,
    "▁18": 576,
    "oul": 577,
    "▁fil": 578,
    "ric": 579,
    "▁ti": 580,
    "▁même": 581,
    "▁ju": 582,
    "▁Su": 583,
    "vis": 584,
    "IN": 585,
    "▁ter": 586,
    "▁sal": 587,
    "▁ces": 588,
    "orte": 589,
    "olog": 590,
    "iste": 591,
    "ger": 592,
    "év": 593,
    "▁St": 594,
    "cl": 595,
    "▁diff": 596,
    "▁É": 597,
    "ière": 598,
    "▁site": 599,
    "▁vis": 600,
    "▁...": 601,
    "ell": 602,
    "aint": 603,
    "ww": 604,
    "/0": 605,
    "aille": 606,
    "puis": 607,
    "▁man": 608,
    "/201": 609,
    "ia": 610,
    "▁cli": 611,
    "▁Ce": 612,
    "ande": 613,
    "mer": 614,
    "ach": 615,
    "▁Des": 616,
    "▁publi": 617,
    "let": 618,
    "▁11": 619,
    "ron": 620,
    "ition": 621,
    "▁th": 622,
    "▁14": 623,
    "▁eff": 624,
    "ateur": 625,
    "▁Mais": 626,
    "▁quel": 627,
    "imp": 628,
    "ves": 629,
    "jour": 630,
    "ances": 631,
    "ités": 632,
    "▁ob": 633,
    "▁dire": 634,
    "▁Y": 635,
    "▁jus": 636,
    "rit": 637,
    "▁tro": 638,
    "▁rec": 639,
    "000": 640,
    "▁cré": 641,
    "vez": 642,
    "ich": 643,
    "▁vie": 644,
    "ore": 645,
    "▁permet": 646,
    "▁prix": 647,
    "ade": 648,
    "▁Une": 649,
    "▁grand": 650,
    "sid": 651,
    "ête": 652,
    "▁soci": 653,
    "▁rég": 654,
    "▁13": 655,
    "ôtel": 656,
    "az": 657,
    "ook": 658,
    "ov": 659,
    "▁es": 660,
    "▁conc": 661,
    "olu": 662,
    "th": 663,
    "▁16": 664,
    "fr": 665,
    "▁&": 666,
    "▁Ré": 667,
    "▁ass": 668,
    "▁dern": 669,
    "des": 670,
    "itu": 671,
    "pon": 672,
    "▁Pos": 673,
    "ption": 674,
    "▁form": 675,
    "core": 676,
    "50": 677,
    "ps": 678,
    "▁fran": 679,
    "▁sé": 680,
    "ues": 681,
    "IS": 682,
    "▁sy": 683,
    "▁17": 684,
    "él": 685,
    "vent": 686,
    "▁ri": 687,
    "opp": 688,
    "enne": 689,
    "ains": 690,
    "▁temps": 691,
    "▁ég": 692,
    "ack": 693,
    "gn": 694,
    "▁Bl": 695,
    "lection": 696,
    "ak": 697,
    "ieux": 698,
    "ari": 699,
    "tiques": 700,
    "oute": 701,
    "▁Car": 702,
    "erci": 703,
    "arge": 704,
    "asse": 705,
    "insi": 706,
    "▁nos": 707,
    "▁per": 708,
    "oci": 709,
    "ites": 710,
    "édi": 711,
    "▁nouv": 712,
    "▁jour": 713,
    "sionn": 714,
    "ris": 715,
    "▁donn": 716,
    "teurs": 717,
    "▁liv": 718,
    "▁Nous": 719,
    "ets": 720,
    "▁Con": 721,
    "ense": 722,
    "▁km": 723,
    "ult": 724,
    "amb": 725,
    "aussures": 726,
    "▁2017": 727,
    "rée": 728,
    "ils": 729,
    "ivers": 730,
    "ays": 731,
    "▁(1": 732,
    "30": 733,
    "lle": 734,
    "aur": 735,
    "▁Z": 736,
    "ode": 737,
    "oupe": 738,
    "lic": 739,
    "▁Cl": 740,
    "▁sec": 741,
    "▁Femme": 742,
    "▁mil": 743,
    "be": 744,
    "▁phot": 745,
    "gan": 746,
    "▁bon": 747,
    "▁trans": 748,
    "agne": 749,
    "mar": 750,
    "▁ver": 751,
    "TI": 752,
    "▁acc": 753,
    "▁Saint": 754,
    "LE": 755,
    "▁sous": 756,
    "ouvez": 757,
    "ive": 758,
    "▁loc": 759,
    "▁dev": 760,
    "enn": 761,
    "chn": 762,
    "çais": 763,
    "▁Paris": 764,
    "ieu": 765,
    "uli": 766,
    "▁elle": 767,
    "pri": 768,
    "▁nouve": 769,
    "▁2018": 770,
    "anc": 771,
    "▁pol": 772,
    "▁X": 773,
    "▁ag": 774,
    "//": 775,
    "▁beau": 776,
    "▁the": 777,
    "▁ro": 778,
    "▁meille": 779,
    "eb": 780,
    "▁recher": 781,
    "ind": 782,
    "▁fa": 783,
    "idé": 784,
    "iter": 785,
    "▁depuis": 786,
    "▁encore": 787,
    "gra": 788,
    "TE": 789,
    "▁at": 790,
    "!!": 791,
    "min": 792,
    "▁sem": 793,
    "RE": 794,
    "tez": 795,
    "cri": 796,
    "▁rés": 797,
    "▁Th": 798,
    "▁avant": 799,
    "aque": 800,
    "ueil": 801,
    "▁cour": 802,
    "▁également": 803,
    "▁gén": 804,
    "12": 805,
    "rer": 806,
    "://": 807,
    "ler": 808,
    "ises": 809,
    "ress": 810,
    "▁part": 811,
    "vel": 812,
    "▁cor": 813,
    "lect": 814,
    "▁utilis": 815,
    "sse": 816,
    "cess": 817,
    "▁.": 818,
    "téri": 819,
    "▁nombre": 820,
    "▁puis": 821,
    "ommes": 822,
    "▁cel": 823,
    "▁ainsi": 824,
    "rez": 825,
    "▁cas": 826,
    "▁On": 827,
    "▁mes": 828,
    "ix": 829,
    "▁;": 830,
    "▁dem": 831,
    "antes": 832,
    "rai": 833,
    "▁gratu": 834,
    "prise": 835,
    "▁bas": 836,
    "ature": 837,
    "▁fois": 838,
    "▁maison": 839,
    "▁év": 840,
    "▁lui": 841,
    "péci": 842,
    "ath": 843,
    "▁env": 844,
    "onom": 845,
    "▁mont": 846,
    "▁Ph": 847,
    "onction": 848,
    "éb": 849,
    "cip": 850,
    "▁À": 851,
    "▁30": 852,
    "aient": 853,
    "▁enf": 854,
    "▁2019": 855,
    "ed": 856,
    "11": 857,
    "isse": 858,
    "ables": 859,
    "mb": 860,
    "avoir": 861,
    "▁télé": 862,
    "▁no": 863,
    "▁commun": 864,
    "estion": 865,
    "lanc": 866,
    "▁Ex": 867,
    "▁Si": 868,
    "▁DE": 869,
    "ilité": 870,
    "resse": 871,
    "ole": 872,
    "eure": 873,
    "titu": 874,
    "ax": 875,
    "tern": 876,
    "▁profes": 877,
    "▁seu": 878,
    "▁monde": 879,
    "▁met": 880,
    "▁après": 881,
    "rais": 882,
    "▁mod": 883,
    "ose": 884,
    "▁#": 885,
    "▁mal": 886,
    "▁ligne": 887,
    "ères": 888,
    "▁suis": 889,
    "ché": 890,
    "▁ab": 891,
    "▁lors": 892,
    "nement": 893,
    "illes": 894,
    "▁of": 895,
    "▁comment": 896,
    "▁donc": 897,
    "ettes": 898,
    "sp": 899,
    "endant": 900,
    "ges": 901,
    "ticle": 902,
    "▁tu": 903,
    "jours": 904,
    "▁cher": 905,
    "▁conn": 906,
    "ah": 907,
    "aines": 908,
    "▁toutes": 909,
    "▁exp": 910,
    "▁où": 911,
    "dition": 912,
    "▁22": 913,
    "▁rep": 914,
    "▁21": 915,
    "erie": 916,
    "▁Chaussures": 917,
    "▁main": 918,
    "ines": 919,
    "▁rencont": 920,
    "▁bl": 921,
    "▁long": 922,
    "▁gar": 923,
    "▁dou": 924,
    "▁mois": 925,
    "▁sera": 926,
    "vre": 927,
    "▁Tr": 928,
    "▁2016": 929,
    "▁Dans": 930,
    "▁Col": 931,
    "mier": 932,
    "erg": 933,
    "vice": 934,
    "ile": 935,
    "▁24": 936,
    "OU": 937,
    "ça": 938,
    "▁contre": 939,
    "▁spéci": 940,
    "▁Sh": 941,
    "▁projet": 942,
    "▁sc": 943,
    "uc": 944,
    "▁toute": 945,
    "rier": 946,
    "▁déb": 947,
    "▁Ac": 948,
    "era": 949,
    "▁rest": 950,
    "ieurs": 951,
    "▁dont": 952,
    "▁mat": 953,
    "ome": 954,
    "otel": 955,
    "ences": 956,
    "▁leurs": 957,
    "mpl": 958,
    "▁poin": 959,
    "quipe": 960,
    "▁23": 961,
    "uit": 962,
    "AL": 963,
    "▁non": 964,
    "▁x": 965,
    "ox": 966,
    "▁cap": 967,
    "lè": 968,
    "iers": 969,
    "▁Se": 970,
    "art": 971,
    "▁htt": 972,
    "▁ent": 973,
    "▁moins": 974,
    "▁place": 975,
    "▁vi": 976,
    "▁fonction": 977,
    "▁+": 978,
    "▁préc": 979,
    "emmes": 980,
    "ices": 981,
    "ust": 982,
    "tive": 983,
    "oix": 984,
    "▁att": 985,
    "tier": 986,
    "▁dro": 987,
    "▁can": 988,
    "ateurs": 989,
    "jou": 990,
    "▁techn": 991,
    "ock": 992,
    "aî": 993,
    "éro": 994,
    "rir": 995,
    "▁Ne": 996,
    "▁jou": 997,
    "af": 998,
    "mm": 999,
    "rande": 1000,
    "vous": 1001,
    "rib": 1002,
    "tres": 1003,
    "OR": 1004,
    "act": 1005,
    "uisine": 1006,
    "▁sol": 1007,
    "▁Acc": 1008,
    "▁ça": 1009,
    "▁mus": 1010,
    "▁avoir": 1011,
    "▁qualité": 1012,
    "acc": 1013,
    "▁Sal": 1014,
    "▁jeu": 1015,
    "▁25": 1016,
    "ange": 1017,
    "▁recherche": 1018,
    "ép": 1019,
    "▁rapp": 1020,
    "19": 1021,
    "▁intern": 1022,
    "▁and": 1023,
    "int": 1024,
    "rés": 1025,
    "oû": 1026,
    "ganis": 1027,
    "▁quelques": 1028,
    "▁premi": 1029,
    "▁op": 1030,
    "▁présent": 1031,
    "entes": 1032,
    "omm": 1033,
    "▁différ": 1034,
    "▁toujours": 1035,
    "illet": 1036,
    "obil": 1037,
    "▁personnes": 1038,
    "▁Mont": 1039,
    "▁pouvez": 1040,
    "ry": 1041,
    "▁chez": 1042,
    "▁jours": 1043,
    "▁pays": 1044,
    "▁avis": 1045,
    "pte": 1046,
    "▁nouveau": 1047,
    "▁simp": 1048,
    "▁public": 1049,
    "▁not": 1050,
    "uer": 1051,
    "▁français": 1052,
    "ik": 1053,
    "velopp": 1054,
    "qué": 1055,
    "40": 1056,
    "bles": 1057,
    "▁déj": 1058,
    "▁aff": 1059,
    "oun": 1060,
    "▁professionn": 1061,
    "aute": 1062,
    "▁va": 1063,
    "mis": 1064,
    "vier": 1065,
    "orti": 1066,
    "raph": 1067,
    "erc": 1068,
    "▁prin": 1069,
    "▁Cette": 1070,
    "ions": 1071,
    "ili": 1072,
    "▁sais": 1073,
    "▁travail": 1074,
    "hui": 1075,
    "▁cert": 1076,
    "elon": 1077,
    "tés": 1078,
    "rait": 1079,
    "isc": 1080,
    "▁réalis": 1081,
    "quer": 1082,
    "sible": 1083,
    "▁trouver": 1084,
    "up": 1085,
    "▁ville": 1086,
    "▁fam": 1087,
    "lo": 1088,
    "anti": 1089,
    "ret": 1090,
    "▁soit": 1091,
    "▁App": 1092,
    "▁coup": 1093,
    "▁imm": 1094,
    "▁autres": 1095,
    "char": 1096,
    "atique": 1097,
    "▁cro": 1098,
    "▁Posté": 1099,
    "coup": 1100,
    "IL": 1101,
    "ls": 1102,
    "▁li": 1103,
    "mble": 1104,
    "▁Noir": 1105,
    "ager": 1106,
    "▁situ": 1107,
    "▁voy": 1108,
    "rique": 1109,
    "AS": 1110,
    "omb": 1111,
    "▁pass": 1112,
    "ly": 1113,
    "▁che": 1114,
    "▁eur": 1115,
    "ht": 1116,
    "200": 1117,
    "ication": 1118,
    "▁z": 1119,
    "ice": 1120,
    "▁vers": 1121,
    "▁Comment": 1122,
    "▁bi": 1123,
    "ame": 1124,
    "▁bou": 1125,
    "▁Mon": 1126,
    "chet": 1127,
    "lig": 1128,
    "▁développ": 1129,
    "▁'": 1130,
    "▁rép": 1131,
    "▁voit": 1132,
    "uite": 1133,
    "▁inform": 1134,
    "....": 1135,
    "▁vol": 1136,
    "▁2015": 1137,
    "ots": 1138,
    "▁plusieurs": 1139,
    "pt": 1140,
    "60": 1141,
    "▁No": 1142,
    "▁dur": 1143,
    "la": 1144,
    "lier": 1145,
    "aiss": 1146,
    "ières": 1147,
    "ori": 1148,
    "Un": 1149,
    "ple": 1150,
    "AC": 1151,
    "fér": 1152,
    "▁rel": 1153,
    "▁Ad": 1154,
    "ane": 1155,
    "▁The": 1156,
    "▁premier": 1157,
    "ros": 1158,
    "oires": 1159,
    "▁était": 1160,
    "▁pouv": 1161,
    "▁indi": 1162,
    "▁dispos": 1163,
    "vices": 1164,
    "anger": 1165,
    "êtes": 1166,
    "▁piè": 1167,
    "▁i": 1168,
    "▁Bas": 1169,
    "▁mai": 1170,
    "▁parf": 1171,
    "▁produits": 1172,
    "▁Avec": 1173,
    "▁petit": 1174,
    "▁film": 1175,
    "▁nouvelle": 1176,
    "\",": 1177,
    "▁Pri": 1178,
    "▁conse": 1179,
    "aud": 1180,
    "ible": 1181,
    "oil": 1182,
    "▁compr": 1183,
    "ud": 1184,
    "sions": 1185,
    "▁bes": 1186,
    "▁Pe": 1187,
    "▁milli": 1188,
    "15": 1189,
    "▁trois": 1190,
    "▁dép": 1191,
    "▁suite": 1192,
    "▁Sur": 1193,
    "did": 1194,
    "uses": 1195,
    "▁Pas": 1196,
    "èle": 1197,
    "80": 1198,
    "ôt": 1199,
    "▁lég": 1200,
    "ril": 1201,
    "ération": 1202,
    "▁service": 1203,
    "▁inst": 1204,
    "ograph": 1205,
    "EL": 1206,
    "rom": 1207,
    "▁Jean": 1208,
    "▁dom": 1209,
    "▁mis": 1210,
    "▁voir": 1211,
    "▁reg": 1212,
    "▁cours": 1213,
    "ardin": 1214,
    "pect": 1215,
    "ambre": 1216,
    "oris": 1217,
    "▁sp": 1218,
    "▁tour": 1219,
    "▁100": 1220,
    "▁inté": 1221,
    "▁Tra": 1222,
    "att": 1223,
    "▁Accueil": 1224,
    "rig": 1225,
    "▁Homme": 1226,
    "écur": 1227,
    "▁jusqu": 1228,
    "istoire": 1229,
    "▁partic": 1230,
    "▁journ": 1231,
    "13": 1232,
    "▁Am": 1233,
    "▁to": 1234,
    "▁déjà": 1235,
    "érie": 1236,
    "ule": 1237,
    "▁beaucoup": 1238,
    "unes": 1239,
    "aill": 1240,
    "ulture": 1241,
    "▁cet": 1242,
    "▁alors": 1243,
    "▁2014": 1244,
    "▁faut": 1245,
    ":4": 1246,
    "▁moi": 1247,
    "▁dispon": 1248,
    "▁chaque": 1249,
    "▁supp": 1250,
    ":2": 1251,
    "▁partir": 1252,
    "▁femme": 1253,
    "vant": 1254,
    "ellement": 1255,
    ":3": 1256,
    "▁mom": 1257,
    "rie": 1258,
    "OM": 1259,
    "▁déf": 1260,
    "▁Me": 1261,
    "lex": 1262,
    "▁savoir": 1263,
    "iti": 1264,
    "oût": 1265,
    "▁imp": 1266,
    "assi": 1267,
    "▁appar": 1268,
    "IC": 1269,
    "▁Can": 1270,
    "▁Co": 1271,
    "jourd": 1272,
    "leu": 1273,
    ":5": 1274,
    "enc": 1275,
    "ène": 1276,
    "for": 1277,
    "▁avait": 1278,
    "ational": 1279,
    "In": 1280,
    "ars": 1281,
    "▁grande": 1282,
    "éli": 1283,
    "anche": 1284,
    "ds": 1285,
    "iens": 1286,
    "14": 1287,
    "AT": 1288,
    "ype": 1289,
    "18": 1290,
    "17": 1291,
    ".0": 1292,
    "▁ins": 1293,
    "▁souh": 1294,
    "-0": 1295,
    "▁por": 1296,
    "▁2013": 1297,
    "rê": 1298,
    "▁rap": 1299,
    "▁Elle": 1300,
    "▁né": 1301,
    "pes": 1302,
    "cteur": 1303,
    "▁Publi": 1304,
    "▁vendre": 1305,
    "▁ép": 1306,
    "oud": 1307,
    "vé": 1308,
    "99": 1309,
    "atif": 1310,
    "tant": 1311,
    "▁afin": 1312,
    "olution": 1313,
    "anvier": 1314,
    "▁enfants": 1315,
    "▁Aut": 1316,
    "ement": 1317,
    "▁cela": 1318,
    "▁is": 1319,
    "tien": 1320,
    "ug": 1321,
    "▁ind": 1322,
    "▁vrai": 1323,
    "dio": 1324,
    "autres": 1325,
    "▁rou": 1326,
    "▁2012": 1327,
    "ira": 1328,
    "IT": 1329,
    "▁première": 1330,
    "▁esp": 1331,
    "charger": 1332,
    "▁soi": 1333,
    "comp": 1334,
    "▁particuli": 1335,
    "▁fond": 1336,
    "▁juin": 1337,
    "▁50": 1338,
    "oration": 1339,
    "▁dés": 1340,
    "obre": 1341,
    "▁mars": 1342,
    "▁nature": 1343,
    "yle": 1344,
    "ative": 1345,
    "phone": 1346,
    "▁coule": 1347,
    "▁découv": 1348,
    "uir": 1349,
    "mo": 1350,
    "lec": 1351,
    "aise": 1352,
    "aff": 1353,
    "▁Plus": 1354,
    "oth": 1355,
    "▁port": 1356,
    ":0": 1357,
    "yn": 1358,
    "ptembre": 1359,
    "▁pra": 1360,
    "▁ils": 1361,
    "▁salle": 1362,
    "▁ven": 1363,
    "16": 1364,
    "▁Gr": 1365,
    "▁produit": 1366,
    "▁cm": 1367,
    "▁élect": 1368,
    "▁moy": 1369,
    "▁dét": 1370,
    "ception": 1371,
    "90": 1372,
    "▁27": 1373,
    "▁28": 1374,
    "anté": 1375,
    "▁Man": 1376,
    "acances": 1377,
    "--": 1378,
    "▁Pré": 1379,
    "▁autre": 1380,
    "térieur": 1381,
    "▁Déc": 1382,
    "ast": 1383,
    "▁mé": 1384,
    "▁aur": 1385,
    "AU": 1386,
    "▁Sac": 1387,
    "ting": 1388,
    "▁char": 1389,
    "Ch": 1390,
    "sement": 1391,
    "▁partie": 1392,
    "www": 1393,
    "tifs": 1394,
    "▁ret": 1395,
    "▁26": 1396,
    "gram": 1397,
    "▁hab": 1398,
    "▁men": 1399,
    "vembre": 1400,
    "▁(2": 1401,
    "asion": 1402,
    "ctions": 1403,
    "▁arri": 1404,
    "▁fl": 1405,
    "▁nive": 1406,
    "je": 1407,
    "▁Ser": 1408,
    "ôle": 1409,
    "▁id": 1410,
    "▁»,": 1411,
    "▁dim": 1412,
    "part": 1413,
    "▁prom": 1414,
    "aul": 1415,
    "▁avez": 1416,
    "rain": 1417,
    "âce": 1418,
    "▁quand": 1419,
    "▁ici": 1420,
    "ôtels": 1421,
    "AM": 1422,
    "▁prés": 1423,
    "ctobre": 1424,
    "▁mét": 1425,
    "▁“": 1426,
    "ression": 1427,
    "▁as": 1428,
    "cid": 1429,
    "▁ple": 1430,
    "ton": 1431,
    "▁he": 1432,
    "once": 1433,
    "▁mati": 1434,
    "emb": 1435,
    "▁Télé": 1436,
    "▁Di": 1437,
    "▁compte": 1438,
    "CH": 1439,
    "▁Te": 1440,
    "OS": 1441,
    "▁ess": 1442,
    "▁bonne": 1443,
    "▁dit": 1444,
    "cul": 1445,
    "▁dernier": 1446,
    "gl": 1447,
    "occ": 1448,
    "▁trop": 1449,
    "ologie": 1450,
    "▁sign": 1451,
    "atri": 1452,
    "cembre": 1453,
    "▁sécur": 1454,
    "▁•": 1455,
    "ital": 1456,
    "▁cal": 1457,
    "rage": 1458,
    "amment": 1459,
    "▁moment": 1460,
    "▁avons": 1461,
    "dif": 1462,
    "▁Du": 1463,
    "ith": 1464,
    "onde": 1465,
    "▁services": 1466,
    "mé": 1467,
    "xim": 1468,
    "▁mise": 1469,
    "US": 1470,
    "ok": 1471,
    "▁num": 1472,
    "▁janvier": 1473,
    "▁table": 1474,
    "▁porte": 1475,
    "▁Liv": 1476,
    "ys": 1477,
    "prises": 1478,
    "cien": 1479,
    "▁sorti": 1480,
    "▁résult": 1481,
    "▁bois": 1482,
    "▁présid": 1483,
    "▁Bar": 1484,
    "▁Be": 1485,
    "▁cuisine": 1486,
    "▁by": 1487,
    "▁région": 1488,
    "esp": 1489,
    "tenir": 1490,
    "▁import": 1491,
    "▁chois": 1492,
    "uel": 1493,
    "25": 1494,
    "▁Loc": 1495,
    "atis": 1496,
    "dic": 1497,
    "▁étu": 1498,
    "IE": 1499,
    "24": 1500,
    "▁inf": 1501,
    "isme": 1502,
    "èrement": 1503,
    "▁Sujet": 1504,
    "oto": 1505,
    "▁société": 1506,
    "▁vidé": 1507,
    "uire": 1508,
    "▁Ren": 1509,
    "▁médi": 1510,
    "ike": 1511,
    "▁cad": 1512,
    "▁groupe": 1513,
    "cole": 1514,
    "mand": 1515,
    "▁%": 1516,
    "▁constr": 1517,
    "io": 1518,
    "▁septembre": 1519,
    "▁mag": 1520,
    "▁cô": 1521,
    "évrier": 1522,
    "▁plan": 1523,
    "▁peuvent": 1524,
    "▁Mo": 1525,
    "tivité": 1526,
    "ierre": 1527,
    "oles": 1528,
    "▁LE": 1529,
    "DF": 1530,
    "▁For": 1531,
    "cle": 1532,
    "▁fourn": 1533,
    "▁princip": 1534,
    "▁choix": 1535,
    "of": 1536,
    "cture": 1537,
    "70": 1538,
    "▁propose": 1539,
    "UE": 1540,
    "▁29": 1541,
    "éf": 1542,
    "ze": 1543,
    "▁prop": 1544,
    "▁Rob": 1545,
    "▁souv": 1546,
    "▁rencontre": 1547,
    "▁ouv": 1548,
    "OL": 1549,
    "gent": 1550,
    "▁Pol": 1551,
    "ner": 1552,
    "An": 1553,
    "▁réser": 1554,
    "çon": 1555,
    "78": 1556,
    "▁Cont": 1557,
    "obilier": 1558,
    "▁page": 1559,
    "▁Maison": 1560,
    "▁Or": 1561,
    "▁000": 1562,
    "sh": 1563,
    "▁ten": 1564,
    "▁rapide": 1565,
    "ime": 1566,
    "▁http": 1567,
    "voir": 1568,
    "__": 1569,
    "▁sh": 1570,
    "▁novembre": 1571,
    "▁Bon": 1572,
    "▁retr": 1573,
    "uro": 1574,
    "▁années": 1575,
    "▁selon": 1576,
    "▁Gu": 1577,
    "lique": 1578,
    "▁log": 1579,
    "Ar": 1580,
    "▁envir": 1581,
    "arm": 1582,
    "▁doit": 1583,
    "▁juillet": 1584,
    "▁avril": 1585,
    "ville": 1586,
    "▁syst": 1587,
    "▁octobre": 1588,
    "▁organis": 1589,
    "val": 1590,
    "▁lieu": 1591,
    "ième": 1592,
    "▁Hotel": 1593,
    "▁Fl": 1594,
    "▁New": 1595,
    "we": 1596,
    "▁Cor": 1597,
    "▁photos": 1598,
    "book": 1599,
    "▁vente": 1600,
    "▁mob": 1601,
    "DE": 1602,
    "ront": 1603,
    "ocu": 1604,
    "▁po": 1605,
    "ambres": 1606,
    "▁Prix": 1607,
    "aces": 1608,
    "ck": 1609,
    "▁minu": 1610,
    "▁Pr": 1611,
    "onnement": 1612,
    "33": 1613,
    "ditions": 1614,
    "▁effet": 1615,
    "TION": 1616,
    "▁$": 1617,
    "ribu": 1618,
    "▁livre": 1619,
    "ity": 1620,
    "▁mieux": 1621,
    "férence": 1622,
    "dez": 1623,
    "istre": 1624,
    "▁40": 1625,
    "cription": 1626,
    "▁niveau": 1627,
    "itement": 1628,
    "ouse": 1629,
    "vée": 1630,
    "éré": 1631,
    "▁mettre": 1632,
    "ulti": 1633,
    "rent": 1634,
    "chat": 1635,
    "▁prendre": 1636,
    "▁décembre": 1637,
    "opul": 1638,
    "nes": 1639,
    "ash": 1640,
    "inter": 1641,
    "▁mess": 1642,
    "▁rem": 1643,
    "▁Ju": 1644,
    "ini": 1645,
    "ENT": 1646,
    "tivités": 1647,
    ".5": 1648,
    "vie": 1649,
    "▁près": 1650,
    "tat": 1651,
    "▁cent": 1652,
    "▁faci": 1653,
    "▁cou": 1654,
    "ape": 1655,
    "agement": 1656,
    "con": 1657,
    "eurs": 1658,
    "▁dess": 1659,
    "▁gratuit": 1660,
    "▁voyage": 1661,
    "ee": 1662,
    "▁demande": 1663,
    "▁lit": 1664,
    "▁chau": 1665,
    "alités": 1666,
    "▁compos": 1667,
    "▁*": 1668,
    "▁contra": 1669,
    "oph": 1670,
    "▁centre": 1671,
    "AG": 1672,
    "NE": 1673,
    "▁Br": 1674,
    "der": 1675,
    "▁vacances": 1676,
    "▁pendant": 1677,
    "euf": 1678,
    "ennes": 1679,
    "▁2011": 1680,
    "▁sour": 1681,
    "tée": 1682,
    "▁meu": 1683,
    "éric": 1684,
    "▁CH": 1685,
    "22": 1686,
    "▁cin": 1687,
    "èmes": 1688,
    "▁cr": 1689,
    "iel": 1690,
    "iver": 1691,
    "ffre": 1692,
    "cheter": 1693,
    "car": 1694,
    "▁2020": 1695,
    "▁proch": 1696,
    "oll": 1697,
    "jec": 1698,
    "vir": 1699,
    "▁sau": 1700,
    "▁poli": 1701,
    "▁février": 1702,
    "▁réc": 1703,
    "▁actu": 1704,
    "vient": 1705,
    "▁all": 1706,
    "▁voiture": 1707,
    "▁anim": 1708,
    "45": 1709,
    "▁Gra": 1710,
    "▁probl": 1711,
    "▁Publié": 1712,
    "▁meilleur": 1713,
    "▁noir": 1714,
    "▁clients": 1715,
    "line": 1716,
    "ationale": 1717,
    "ourg": 1718,
    "▁femmes": 1719,
    "oie": 1720,
    "▁lun": 1721,
    "▁».": 1722,
    "▁Cas": 1723,
    "▁lib": 1724,
    "▁question": 1725,
    "▁resp": 1726,
    "▁bar": 1727,
    "own": 1728,
    "▁program": 1729,
    "▁famille": 1730,
    "▁Pre": 1731,
    "lles": 1732,
    "▁rais": 1733,
    "tenant": 1734,
    "▁êtes": 1735,
    "En": 1736,
    "lément": 1737,
    "▁Ann": 1738,
    "RO": 1739,
    "▁eu": 1740,
    "35": 1741,
    "▁fer": 1742,
    "▁reste": 1743,
    "▁année": 1744,
    "▁rése": 1745,
    "cier": 1746,
    "son": 1747,
    "▁grâce": 1748,
    "▁cat": 1749,
    "▁bén": 1750,
    "dro": 1751,
    "▁possible": 1752,
    "ié": 1753,
    "duction": 1754,
    "▁br": 1755,
    "▁dém": 1756,
    "âte": 1757,
    "Le": 1758,
    "amais": 1759,
    "empl": 1760,
    "▁offre": 1761,
    "ote": 1762,
    "ett": 1763,
    "▁contin": 1764,
    "erne": 1765,
    "anne": 1766,
    "▁rien": 1767,
    "péri": 1768,
    "oot": 1769,
    "▁jeunes": 1770,
    "▁là": 1771,
    "▁LA": 1772,
    "▁Char": 1773,
    "▁Ab": 1774,
    "ouss": 1775,
    "▁Bou": 1776,
    "sur": 1777,
    "action": 1778,
    "▁semaine": 1779,
    "▁rapport": 1780,
    "▁Ou": 1781,
    "dit": 1782,
    "yl": 1783,
    "▁dos": 1784,
    "venir": 1785,
    "▁mer": 1786,
    "gement": 1787,
    "IR": 1788,
    "▁super": 1789,
    "▁besoin": 1790,
    "ki": 1791,
    "▁données": 1792,
    "▁Dé": 1793,
    "▁fab": 1794,
    "▁Sp": 1795,
    "▁restaur": 1796,
    "▁personne": 1797,
    "▁pièces": 1798,
    "▁2010": 1799,
    "▁Val": 1800,
    "tout": 1801,
    "iz": 1802,
    "▁petite": 1803,
    "endu": 1804,
    "iller": 1805,
    "▁Lun": 1806,
    "cs": 1807,
    "▁point": 1808,
    "emple": 1809,
    "CE": 1810,
    "inform": 1811,
    "▁Cons": 1812,
    "▁marché": 1813,
    "▁tot": 1814,
    "▁ense": 1815,
    "duc": 1816,
    "ood": 1817,
    "▁économ": 1818,
    "▁notamment": 1819,
    "égor": 1820,
    "▁sécurité": 1821,
    "▁viv": 1822,
    "ll": 1823,
    "▁homme": 1824,
    "éral": 1825,
    "este": 1826,
    "▁camp": 1827,
    "▁pouvoir": 1828,
    "opé": 1829,
    "75": 1830,
    ",5": 1831,
    "▁Air": 1832,
    "aisse": 1833,
    "▁hum": 1834,
    "▁photo": 1835,
    "ticles": 1836,
    "▁décl": 1837,
    "95": 1838,
    "▁trouv": 1839,
    "ienne": 1840,
    "▁jamais": 1841,
    "alisation": 1842,
    "▁face": 1843,
    "oh": 1844,
    "gré": 1845,
    "▁blanc": 1846,
    "▁formation": 1847,
    "▁location": 1848,
    "▁Voir": 1849,
    "uss": 1850,
    "▁fais": 1851,
    "aite": 1852,
    "▁Intern": 1853,
    "medi": 1854,
    "sib": 1855,
    "ureau": 1856,
    "▁heures": 1857,
    "ip": 1858,
    "▁début": 1859,
    "ET": 1860,
    "▁popul": 1861,
    "iche": 1862,
    "▁ref": 1863,
    "man": 1864,
    "▁cadre": 1865,
    "▁demand": 1866,
    "▁Bask": 1867,
    "▁vraiment": 1868,
    "itaire": 1869,
    "▁minutes": 1870,
    "hé": 1871,
    "▁simple": 1872,
    "▁chambre": 1873,
    "illage": 1874,
    "ada": 1875,
    "▁Vente": 1876,
    "▁belle": 1877,
    "▁Rés": 1878,
    "▁us": 1879,
    "istes": 1880,
    "▁aujourd": 1881,
    "▁droit": 1882,
    "▁Mal": 1883,
    "▁artis": 1884,
    "▁fac": 1885,
    "▁US": 1886,
    "▁auc": 1887,
    "▁Rou": 1888,
    "▁équipe": 1889,
    "tal": 1890,
    "ules": 1891,
    "▁août": 1892,
    "vers": 1893,
    "quoi": 1894,
    "adi": 1895,
    "▁09": 1896,
    "dre": 1897,
    "▁carte": 1898,
    "▁propri": 1899,
    "▁travaux": 1900,
    "▁01": 1901,
    "▁be": 1902,
    "▁comb": 1903,
    "AP": 1904,
    "erre": 1905,
    "',": 1906,
    "urope": 1907,
    "▁veu": 1908,
    "▁charge": 1909,
    "2.": 1910,
    "▁disc": 1911,
    "▁pie": 1912,
    "▁Après": 1913,
    "▁Cour": 1914,
    "inf": 1915,
    "▁Blanc": 1916,
    "▁sommes": 1917,
    "▁chambres": 1918,
    "▁ceux": 1919,
    "▁Merci": 1920,
    "urg": 1921,
    "▁tex": 1922,
    "23": 1923,
    "▁dist": 1924,
    "▁toi": 1925,
    "OUR": 1926,
    "▁vue": 1927,
    "▁fra": 1928,
    "uil": 1929,
    "\".": 1930,
    "aï": 1931,
    "▁santé": 1932,
    "reg": 1933,
    "érique": 1934,
    "▁assur": 1935,
    "ards": 1936,
    "oici": 1937,
    "iez": 1938,
    "▁06": 1939,
    "▁jardin": 1940,
    "OT": 1941,
    "ber": 1942,
    "▁développement": 1943,
    "rance": 1944,
    "▁unique": 1945,
    "▁pris": 1946,
    "▁orig": 1947,
    "ave": 1948,
    "année": 1949,
    "aie": 1950,
    "▁taille": 1951,
    "▁parc": 1952,
    "▁parten": 1953,
    "▁équi": 1954,
    "aison": 1955,
    "nov": 1956,
    "▁marque": 1957,
    "▁système": 1958,
    "▁blog": 1959,
    "▁Femmes": 1960,
    "▁saison": 1961,
    "▁nécess": 1962,
    "▁Cher": 1963,
    "itation": 1964,
    "26": 1965,
    "icile": 1966,
    "ociation": 1967,
    "28": 1968,
    "tit": 1969,
    "aller": 1970,
    "hic": 1971,
    "▁mari": 1972,
    "ork": 1973,
    "▁celui": 1974,
    "jouter": 1975,
    "redi": 1976,
    "org": 1977,
    "▁seront": 1978,
    "érer": 1979,
    "▁proc": 1980,
    "▁<": 1981,
    "2,": 1982,
    "orer": 1983,
    "ondre": 1984,
    "▁Grand": 1985,
    "▁mode": 1986,
    "▁type": 1987,
    "oti": 1988,
    "▁empl": 1989,
    "ige": 1990,
    "tention": 1991,
    "▁Mer": 1992,
    "▁Ag": 1993,
    "tég": 1994,
    "SE": 1995,
    "clus": 1996,
    "rière": 1997,
    "ettre": 1998,
    "▁série": 1999,
    "▁ris": 2000,
    "▁forme": 2001,
    "▁informations": 2002,
    "lication": 2003,
    "▁sélection": 2004,
    "ël": 2005,
    "▁Cap": 2006,
    "DI": 2007,
    "aliste": 2008,
    "▁vidéo": 2009,
    "▁découvrir": 2010,
    "ablis": 2011,
    "▁val": 2012,
    "land": 2013,
    "istra": 2014,
    "▁nombreux": 2015,
    "Al": 2016,
    "▁31": 2017,
    "▁Mod": 2018,
    "cell": 2019,
    "yon": 2020,
    "▁Ils": 2021,
    "lu": 2022,
    "▁respons": 2023,
    "ordin": 2024,
    "iner": 2025,
    "inc": 2026,
    "▁Mus": 2027,
    "▁Gar": 2028,
    "▁EUR": 2029,
    "▁Ces": 2030,
    "▁expéri": 2031,
    "tection": 2032,
    "ibles": 2033,
    "vention": 2034,
    "▁siè": 2035,
    "▁sujet": 2036,
    "pec": 2037,
    "ports": 2038,
    "▁haut": 2039,
    "▁nouvelles": 2040,
    "ousse": 2041,
    "▁web": 2042,
    "lab": 2043,
    "tim": 2044,
    "atre": 2045,
    "iciel": 2046,
    "RI": 2047,
    "▁08": 2048,
    "▁Go": 2049,
    "▁tant": 2050,
    "▁travers": 2051,
    "▁trouve": 2052,
    "cal": 2053,
    "▁journée": 2054,
    "▁https": 2055,
    "oign": 2056,
    "ouverture": 2057,
    "ree": 2058,
    "▁asse": 2059,
    "▁inv": 2060,
    "▁millions": 2061,
    "temps": 2062,
    "▁article": 2063,
    "lég": 2064,
    "orter": 2065,
    "▁sens": 2066,
    "▁occ": 2067,
    "▁Comm": 2068,
    "27": 2069,
    "29": 2070,
    "▁60": 2071,
    "irs": 2072,
    "▁conten": 2073,
    "▁passer": 2074,
    "ider": 2075,
    "ones": 2076,
    "èg": 2077,
    "cep": 2078,
    "▁lim": 2079,
    "▁champ": 2080,
    "▁Bleu": 2081,
    "▁matéri": 2082,
    "▁seulement": 2083,
    "▁visite": 2084,
    "▁vit": 2085,
    "ails": 2086,
    "▁2009": 2087,
    "Mar": 2088,
    "résent": 2089,
    "▁autom": 2090,
    "▁liste": 2091,
    "▁Bot": 2092,
    "▁PDF": 2093,
    "ercredi": 2094,
    "▁bénéf": 2095,
    "▁ton": 2096,
    "▁lum": 2097,
    "raison": 2098,
    "oyer": 2099,
    "▁Ret": 2100,
    "▁effec": 2101,
    "▁Nike": 2102,
    "ted": 2103,
    "▁docu": 2104,
    "▁Ass": 2105,
    "▁gestion": 2106,
    "entreprise": 2107,
    "▁(3": 2108,
    "aleur": 2109,
    "▁péri": 2110,
    "▁concern": 2111,
    "44": 2112,
    "tte": 2113,
    "aw": 2114,
    "ache": 2115,
    "▁culture": 2116,
    "auteur": 2117,
    "▁gl": 2118,
    "ras": 2119,
    "ieur": 2120,
    "était": 2121,
    "pro": 2122,
    "▁Es": 2123,
    "▁base": 2124,
    "▁Location": 2125,
    "abilité": 2126,
    "▁souvent": 2127,
    "▁1.": 2128,
    "▁autour": 2129,
    "▁dès": 2130,
    "tream": 2131,
    "ost": 2132,
    "▁inc": 2133,
    "occasion": 2134,
    "lin": 2135,
    "▁sac": 2136,
    "▁design": 2137,
    "▁Sam": 2138,
    "▁uti": 2139,
    "▁Notre": 2140,
    "▁pap": 2141,
    "uction": 2142,
    "▁commerci": 2143,
    "▁rue": 2144,
    "▁Per": 2145,
    "onomie": 2146,
    "▁entreprises": 2147,
    "▁passe": 2148,
    "▁surtout": 2149,
    "orts": 2150,
    "ict": 2151,
    "▁but": 2152,
    "▁cir": 2153,
    "▁bal": 2154,
    "▁Son": 2155,
    "▁change": 2156,
    "arder": 2157,
    "œu": 2158,
    "▁dernière": 2159,
    "lus": 2160,
    "▁adap": 2161,
    "▁conne": 2162,
    "aly": 2163,
    "▁style": 2164,
    "▁Black": 2165,
    "équipe": 2166,
    "▁côté": 2167,
    "▁tar": 2168,
    "aissance": 2169,
    "...]": 2170,
    "▁appel": 2171,
    "▁jeux": 2172,
    "▁Comp": 2173,
    "ina": 2174,
    "▁pres": 2175,
    "▁Tous": 2176,
    "iles": 2177,
    "65": 2178,
    "ministra": 2179,
    "didas": 2180,
    "▁plais": 2181,
    "▁feu": 2182,
    "▁entreprise": 2183,
    "21": 2184,
    "oint": 2185,
    "ME": 2186,
    "gé": 2187,
    "ma": 2188,
    "▁Is": 2189,
    "iance": 2190,
    "paration": 2191,
    "▁font": 2192,
    "▁programme": 2193,
    "▁Tout": 2194,
    "CI": 2195,
    "▁pu": 2196,
    "▁gen": 2197,
    "▁vendredi": 2198,
    "▁modif": 2199,
    "alog": 2200,
    "▁président": 2201,
    "▁fut": 2202,
    "▁large": 2203,
    "La": 2204,
    "▁samedi": 2205,
    "▁certains": 2206,
    "alon": 2207,
    "éhic": 2208,
    "▁bat": 2209,
    "▁Bel": 2210,
    "▁europé": 2211,
    "▁jeune": 2212,
    "▁rev": 2213,
    "sy": 2214,
    "▁destin": 2215,
    "▁Sand": 2216,
    "▁Mich": 2217,
    "iné": 2218,
    "ision": 2219,
    "▁généra": 2220,
    "▁dimanche": 2221,
    "ouvernement": 2222,
    "▁sub": 2223,
    "dec": 2224,
    "uy": 2225,
    "RA": 2226,
    "amme": 2227,
    "▁accomp": 2228,
    "ca": 2229,
    "▁exemple": 2230,
    "ouverte": 2231,
    "▁garanti": 2232,
    "aître": 2233,
    "▁Actu": 2234,
    "ung": 2235,
    "ément": 2236,
    "=\"": 2237,
    "▁pens": 2238,
    "▁maintenant": 2239,
    "▁retour": 2240,
    "▁mi": 2241,
    "oins": 2242,
    "partement": 2243,
    "ren": 2244,
    "▁juste": 2245,
    "▁Ver": 2246,
    "▁couleur": 2247,
    "suite": 2248,
    "leur": 2249,
    "▁réf": 2250,
    "anci": 2251,
    "tent": 2252,
    "ana": 2253,
    "▁Fil": 2254,
    "▁lo": 2255,
    "▁etc": 2256,
    "▁Tou": 2257,
    "▁Beau": 2258,
    "▁confort": 2259,
    "▁35": 2260,
    "▁Taille": 2261,
    "yc": 2262,
    "▁points": 2263,
    ":00": 2264,
    "uide": 2265,
    "▁Imp": 2266,
    "irt": 2267,
    "inal": 2268,
    "▁version": 2269,
    "▁Sol": 2270,
    "▁euros": 2271,
    "▁anti": 2272,
    "▁frais": 2273,
    "▁livres": 2274,
    "dia": 2275,
    "▁Cal": 2276,
    "nel": 2277,
    "▁Inter": 2278,
    "mentation": 2279,
    "▁éch": 2280,
    "ick": 2281,
    "▁donner": 2282,
    "orde": 2283,
    "▁préf": 2284,
    "▁ci": 2285,
    "▁résultats": 2286,
    "Ph": 2287,
    "▁donne": 2288,
    "▁titre": 2289,
    "▁petits": 2290,
    "▁ali": 2291,
    "▁Cré": 2292,
    "▁différents": 2293,
    "▁én": 2294,
    "76": 2295,
    "çu": 2296,
    "ama": 2297,
    "▁disponible": 2298,
    "▁Entre": 2299,
    "▁message": 2300,
    "▁Rép": 2301,
    "▁lire": 2302,
    "Les": 2303,
    "onces": 2304,
    "▁multi": 2305,
    "▁ET": 2306,
    "▁représent": 2307,
    "▁politique": 2308,
    "▁ress": 2309,
    "▁dépl": 2310,
    "ates": 2311,
    "ws": 2312,
    "▁test": 2313,
    "inture": 2314,
    "▁2008": 2315,
    "autre": 2316,
    "▁celle": 2317,
    "iser": 2318,
    "forme": 2319,
    "▁)": 2320,
    "▁Long": 2321,
    "ètres": 2322,
    "▁lundi": 2323,
    "ross": 2324,
    "▁eng": 2325,
    "ight": 2326,
    "▁contr": 2327,
    "▁devant": 2328,
    "▁direc": 2329,
    "▁Conse": 2330,
    "▁hy": 2331,
    "85": 2332,
    "▁Dim": 2333,
    "▁=": 2334,
    "34": 2335,
    "acement": 2336,
    "charge": 2337,
    "▁07": 2338,
    "onnes": 2339,
    "ano": 2340,
    "▁EN": 2341,
    "▁cer": 2342,
    "▁Ma": 2343,
    "né": 2344,
    "ase": 2345,
    "équ": 2346,
    "ayer": 2347,
    "eff": 2348,
    "êtements": 2349,
    "▁répon": 2350,
    "eng": 2351,
    "mment": 2352,
    "OP": 2353,
    "▁tourn": 2354,
    "gne": 2355,
    "-201": 2356,
    "▁Cat": 2357,
    "▁collec": 2358,
    "▁proxim": 2359,
    "▁Cel": 2360,
    "▁gros": 2361,
    "til": 2362,
    "▁bout": 2363,
    "▁Che": 2364,
    "itions": 2365,
    "▁Lire": 2366,
    "▁musique": 2367,
    "duit": 2368,
    "▁Av": 2369,
    "ergie": 2370,
    "oise": 2371,
    "▁collection": 2372,
    "otidi": 2373,
    "apos": 2374,
    "/10": 2375,
    "iscine": 2376,
    "▁associ": 2377,
    "▁hommes": 2378,
    "▁seul": 2379,
    "▁Mag": 2380,
    "quet": 2381,
    "▁—": 2382,
    "▁[...]": 2383,
    "▁04": 2384,
    "▁Nouv": 2385,
    "ull": 2386,
    "▁Vol": 2387,
    "dess": 2388,
    "▁caus": 2389,
    "rant": 2390,
    "▁mot": 2391,
    "▁ni": 2392,
    "face": 2393,
    "ionn": 2394,
    "▁Dis": 2395,
    "▁quoi": 2396,
    "▁Ro": 2397,
    "▁tête": 2398,
    "▁nouveaux": 2399,
    "rêt": 2400,
    "▁vu": 2401,
    "yant": 2402,
    "cessoires": 2403,
    "treaming": 2404,
    "▁syn": 2405,
    "bum": 2406,
    "▁recom": 2407,
    "fs": 2408,
    "âti": 2409,
    "▁assez": 2410,
    "acité": 2411,
    "▁sites": 2412,
    "II": 2413,
    "▁Sc": 2414,
    "/200": 2415,
    "ka": 2416,
    "▁véhic": 2417,
    "urb": 2418,
    "ere": 2419,
    "▁rom": 2420,
    "▁proximité": 2421,
    "▁05": 2422,
    "▁80": 2423,
    "▁tri": 2424,
    "▁chose": 2425,
    "ensemble": 2426,
    "▁prév": 2427,
    "▁suff": 2428,
    "▁chauff": 2429,
    "▁chem": 2430,
    "estions": 2431,
    "eek": 2432,
    "histoire": 2433,
    "▁nuit": 2434,
    "▁professionnels": 2435,
    "▁améric": 2436,
    "▁Français": 2437,
    "▁pratique": 2438,
    "▁soir": 2439,
    "36": 2440,
    "▁mesure": 2441,
    "▁client": 2442,
    "ute": 2443,
    "▁Bien": 2444,
    "▁déclar": 2445,
    "enf": 2446,
    "▁immobilier": 2447,
    "œur": 2448,
    "atiques": 2449,
    "▁Que": 2450,
    "▁Form": 2451,
    "▁corps": 2452,
    "▁memb": 2453,
    "▁plu": 2454,
    "39": 2455,
    "▁haute": 2456,
    "▁Ter": 2457,
    "▁Bra": 2458,
    "lim": 2459,
    "38": 2460,
    "▁Cam": 2461,
    "▁cri": 2462,
    "êt": 2463,
    "érit": 2464,
    "cm": 2465,
    "arch": 2466,
    "avant": 2467,
    "▁contac": 2468,
    "▁façon": 2469,
    "mail": 2470,
    "ète": 2471,
    "▁modèle": 2472,
    "▁Gal": 2473,
    "▁particip": 2474,
    "▁sus": 2475,
    "vo": 2476,
    "▁séjour": 2477,
    "▁plein": 2478,
    "▁pense": 2479,
    "▁match": 2480,
    "▁Baskets": 2481,
    "74": 2482,
    "▁cit": 2483,
    "▁Centre": 2484,
    "istor": 2485,
    "▁Télécharger": 2486,
    "tiers": 2487,
    "bes": 2488,
    "mbl": 2489,
    "▁internet": 2490,
    "▁idé": 2491,
    "ueur": 2492,
    "▁Home": 2493,
    "▁divers": 2494,
    "orig": 2495,
    "▁Design": 2496,
    "off": 2497,
    "oî": 2498,
    "▁activités": 2499,
    "▁mercredi": 2500,
    "▁commer": 2501,
    "▁Tag": 2502,
    "artement": 2503,
    "▁sû": 2504,
    "▁bain": 2505,
    "▁jeudi": 2506,
    "▁Ven": 2507,
    "▁temp": 2508,
    "ark": 2509,
    "duire": 2510,
    "▁mm": 2511,
    "▁Dou": 2512,
    "▁secteur": 2513,
    "▁cherche": 2514,
    "oncé": 2515,
    "▁Port": 2516,
    "▁45": 2517,
    "itter": 2518,
    "veux": 2519,
    "▁rempl": 2520,
    "▁plate": 2521,
    "▁Table": 2522,
    "▁Tri": 2523,
    "otes": 2524,
    "▁Prof": 2525,
    "**": 2526,
    "Ad": 2527,
    "▁heure": 2528,
    "▁El": 2529,
    "▁compé": 2530,
    "agit": 2531,
    "isation": 2532,
    "▁problème": 2533,
    "▁réseau": 2534,
    "▁gouvernement": 2535,
    "▁quotidi": 2536,
    "▁Cuir": 2537,
    "3.": 2538,
    "▁mardi": 2539,
    "▁images": 2540,
    "▁Salle": 2541,
    "ara": 2542,
    "zz": 2543,
    "▁salon": 2544,
    "▁fi": 2545,
    "▁conte": 2546,
    "dé": 2547,
    "▁quar": 2548,
    "ancer": 2549,
    "ows": 2550,
    "▁Bal": 2551,
    "ml": 2552,
    "vin": 2553,
    "66": 2554,
    "▁étudi": 2555,
    "▁plaisir": 2556,
    "load": 2557,
    "hab": 2558,
    "▁Mat": 2559,
    "ball": 2560,
    "position": 2561,
    "▁cam": 2562,
    "▁Article": 2563,
    "▁facile": 2564,
    "vid": 2565,
    "▁Aff": 2566,
    "onie": 2567,
    "▁sim": 2568,
    "ustri": 2569,
    "▁vari": 2570,
    "AB": 2571,
    "▁IN": 2572,
    "▁rece": 2573,
    "rasse": 2574,
    "▁Face": 2575,
    "ension": 2576,
    "atives": 2577,
    "ogle": 2578,
    "AD": 2579,
    "▁projets": 2580,
    "oyage": 2581,
    "▁Bro": 2582,
    "▁TV": 2583,
    "hôtel": 2584,
    "▁Pierre": 2585,
    "EM": 2586,
    "article": 2587,
    "astique": 2588,
    "▁lang": 2589,
    "tine": 2590,
    "▁commenc": 2591,
    "▁réun": 2592,
    "▁ferm": 2593,
    "tives": 2594,
    "rou": 2595,
    "lez": 2596,
    "▁second": 2597,
    "▁you": 2598,
    "▁thé": 2599,
    "heure": 2600,
    "▁suiv": 2601,
    "▁offres": 2602,
    "▁propre": 2603,
    "▁promo": 2604,
    "nent": 2605,
    "▁1,": 2606,
    "▁spécialis": 2607,
    "▁Cuisine": 2608,
    "▁reconn": 2609,
    "▁situation": 2610,
    "▁chi": 2611,
    "98": 2612,
    "inté": 2613,
    "1.": 2614,
    "king": 2615,
    "▁présente": 2616,
    "▁Gen": 2617,
    "icro": 2618,
    "oses": 2619,
    "▁00": 2620,
    "ives": 2621,
    "▁précéd": 2622,
    "Unis": 2623,
    "tival": 2624,
    "▁commentaire": 2625,
    "▁club": 2626,
    "▁habit": 2627,
    "▁stock": 2628,
    "▁pourrait": 2629,
    "▁rév": 2630,
    "▁raison": 2631,
    "▁fich": 2632,
    "▁membres": 2633,
    "▁consul": 2634,
    "▁sex": 2635,
    "▁tend": 2636,
    "get": 2637,
    "atoire": 2638,
    "▁constitu": 2639,
    "▁aller": 2640,
    "▁général": 2641,
    "aide": 2642,
    "▁création": 2643,
    "▁couleurs": 2644,
    "▁écrit": 2645,
    "sier": 2646,
    "▁Min": 2647,
    "▁Hôtel": 2648,
    "▁manière": 2649,
    "▁vient": 2650,
    "tient": 2651,
    "▁appartement": 2652,
    "▁sole": 2653,
    "to": 2654,
    "ouleur": 2655,
    "▁norm": 2656,
    "▁bureau": 2657,
    "▁merci": 2658,
    "3,": 2659,
    "ographie": 2660,
    "IM": 2661,
    "olutions": 2662,
    "▁Tour": 2663,
    "ppe": 2664,
    "ébé": 2665,
    "IG": 2666,
    "ownload": 2667,
    "rice": 2668,
    "▁Ge": 2669,
    "▁ministre": 2670,
    "▁mondi": 2671,
    "▁rouge": 2672,
    "ino": 2673,
    "▁différentes": 2674,
    "▁Esp": 2675,
    "ref": 2676,
    "resp": 2677,
    "▁Alors": 2678,
    "▁grands": 2679,
    "sibilité": 2680,
    "▁matin": 2681,
    "▁Op": 2682,
    "▁mor": 2683,
    "IER": 2684,
    "▁prend": 2685,
    "▁Votre": 2686,
    "▁Im": 2687,
    "▁candid": 2688,
    "ologique": 2689,
    "▁classe": 2690,
    "▁doi": 2691,
    "range": 2692,
    "▁voul": 2693,
    "▁nav": 2694,
    "urer": 2695,
    "▁disponibles": 2696,
    "▁perform": 2697,
    "entif": 2698,
    "▁Laur": 2699,
    "allation": 2700,
    "...)": 2701,
    "utilisation": 2702,
    "QUE": 2703,
    "oré": 2704,
    "venue": 2705,
    "7,": 2706,
    "auv": 2707,
    "▁puiss": 2708,
    "48": 2709,
    "▁Ang": 2710,
    "▁meilleurs": 2711,
    "usement": 2712,
    "RAN": 2713,
    "▁Page": 2714,
    "▁serait": 2715,
    "▁Trans": 2716,
    "illa": 2717,
    "▁effic": 2718,
    "▁neuf": 2719,
    "▁complè": 2720,
    "seur": 2721,
    "▁soleil": 2722,
    "▁parce": 2723,
    "VE": 2724,
    "▁gagn": 2725,
    "rop": 2726,
    "quel": 2727,
    "hô": 2728,
    "▁Sch": 2729,
    "fort": 2730,
    "▁cuir": 2731,
    "▁bord": 2732,
    "uelle": 2733,
    "oure": 2734,
    "▁défin": 2735,
    "▁Ben": 2736,
    "▁téléphone": 2737,
    "terie": 2738,
    "ides": 2739,
    "▁technique": 2740,
    "▁règ": 2741,
    "▁utiliser": 2742,
    "vision": 2743,
    "▁nombreuses": 2744,
    "asses": 2745,
    "old": 2746,
    "ombre": 2747,
    "▁sortie": 2748,
    "▁Comme": 2749,
    "ulaire": 2750,
    "▁Nos": 2751,
    "inst": 2752,
    "▁questions": 2753,
    "çois": 2754,
    "▁conditions": 2755,
    "▁Jeu": 2756,
    "ouveau": 2757,
    "▁Bi": 2758,
    "▁(5": 2759,
    "estival": 2760,
    "▁Fin": 2761,
    "▁90": 2762,
    "fic": 2763,
    "▁Sa": 2764,
    "▁stra": 2765,
    "▁quatre": 2766,
    "▁date": 2767,
    "gu": 2768,
    "9,": 2769,
    "▁magn": 2770,
    "▁pan": 2771,
    "▁moyen": 2772,
    "▁ban": 2773,
    "▁terrain": 2774,
    "ATION": 2775,
    "▁mach": 2776,
    "▁fille": 2777,
    "mission": 2778,
    "▁travaill": 2779,
    "èque": 2780,
    "▁effectu": 2781,
    "▁Super": 2782,
    "▁He": 2783,
    "oss": 2784,
    "ouer": 2785,
    "▁Mode": 2786,
    "▁agré": 2787,
    "éch": 2788,
    "ky": 2789,
    "▁articles": 2790,
    "aussure": 2791,
    "▁passé": 2792,
    "▁pièce": 2793,
    "1,": 2794,
    "istance": 2795,
    "▁Web": 2796,
    "▁professionnel": 2797,
    "▁démar": 2798,
    "▁03": 2799,
    "▁â": 2800,
    "égorie": 2801,
    "ony": 2802,
    "46": 2803,
    "ades": 2804,
    "▁Sport": 2805,
    "ailleurs": 2806,
    "▁02": 2807,
    "rist": 2808,
    "▁eux": 2809,
    "▁term": 2810,
    "nelle": 2811,
    "▁lien": 2812,
    "ève": 2813,
    "▁sein": 2814,
    "▁Recher": 2815,
    "▁prise": 2816,
    "▁fabric": 2817,
    "▁Off": 2818,
    "ume": 2819,
    "mart": 2820,
    "▁production": 2821,
    "jectif": 2822,
    "lise": 2823,
    "raî": 2824,
    "ysi": 2825,
    "▁from": 2826,
    "▁fav": 2827,
    "ram": 2828,
    "2)": 2829,
    "▁auprès": 2830,
    "rées": 2831,
    "estaur": 2832,
    "▁compagn": 2833,
    "7.": 2834,
    "▁2.": 2835,
    "▁enfant": 2836,
    "▁Voici": 2837,
    "▁priv": 2838,
    "▁Ste": 2839,
    "▁spect": 2840,
    "oiles": 2841,
    "oli": 2842,
    "▁département": 2843,
    "▁(1)": 2844,
    "gr": 2845,
    "▁!!!": 2846,
    "▁numéro": 2847,
    "▁75": 2848,
    "aime": 2849,
    "▁tel": 2850,
    "▁Adidas": 2851,
    "▁loi": 2852,
    "▁70": 2853,
    "aci": 2854,
    "▁coû": 2855,
    "▁Bois": 2856,
    "▁gamme": 2857,
    "▁At": 2858,
    "étique": 2859,
    "▁créer": 2860,
    "▁veut": 2861,
    "▁française": 2862,
    "▁magas": 2863,
    "▁choisir": 2864,
    "96": 2865,
    "▁consomm": 2866,
    "oque": 2867,
    "▁elles": 2868,
    "ède": 2869,
    "▁compar": 2870,
    "▁direct": 2871,
    "entiel": 2872,
    "▁q": 2873,
    "uxe": 2874,
    "▁Découv": 2875,
    "▁©": 2876,
    "prit": 2877,
    "▁gé": 2878,
    "uri": 2879,
    "otte": 2880,
    "▁Dom": 2881,
    "▁fix": 2882,
    "▁protection": 2883,
    "▁Mai": 2884,
    "▁book": 2885,
    "issement": 2886,
    "acté": 2887,
    "▁Internet": 2888,
    "▁Depuis": 2889,
    "indre": 2890,
    "▁Wh": 2891,
    "▁intéress": 2892,
    "4.": 2893,
    "étu": 2894,
    "▁Gris": 2895,
    "▁DU": 2896,
    "▁important": 2897,
    "▁partici": 2898,
    "▁besoins": 2899,
    "Je": 2900,
    "emp": 2901,
    "▁proche": 2902,
    "▁RE": 2903,
    "▁acheter": 2904,
    "auche": 2905,
    "▁ayant": 2906,
    "▁rapidement": 2907,
    "▁As": 2908,
    "▁Dern": 2909,
    "▁Ét": 2910,
    "âteau": 2911,
    "ley": 2912,
    "ablissement": 2913,
    "PS": 2914,
    "jets": 2915,
    "ID": 2916,
    "sych": 2917,
    "▁Plan": 2918,
    "▁Rencont": 2919,
    "▁Soci": 2920,
    "▁Mad": 2921,
    "▁Ob": 2922,
    "▁plut": 2923,
    "▁Lib": 2924,
    "quant": 2925,
    "oile": 2926,
    "4,": 2927,
    "▁with": 2928,
    "ata": 2929,
    "▁Ville": 2930,
    "ames": 2931,
    "envir": 2932,
    "▁Cro": 2933,
    "▁suc": 2934,
    "vestis": 2935,
    "rang": 2936,
    "▁gens": 2937,
    "▁code": 2938,
    "▁classi": 2939,
    "▁poss": 2940,
    "oe": 2941,
    "▁chac": 2942,
    "▁commune": 2943,
    "▁dég": 2944,
    "▁Gre": 2945,
    "▁route": 2946,
    "▁double": 2947,
    "▁emb": 2948,
    "▁pati": 2949,
    "▁appro": 2950,
    "▁Quel": 2951,
    "▁36": 2952,
    "UN": 2953,
    "▁bro": 2954,
    "▁succ": 2955,
    "88": 2956,
    "oids": 2957,
    "▁territ": 2958,
    "rid": 2959,
    "ient": 2960,
    "77": 2961,
    "igh": 2962,
    "▁Canada": 2963,
    "▁aura": 2964,
    "▁conseil": 2965,
    "▁Af": 2966,
    "▁annonce": 2967,
    "▁Max": 2968,
    "inaire": 2969,
    "ault": 2970,
    "▁cade": 2971,
    "▁environ": 2972,
    "emploi": 2973,
    "éma": 2974,
    "▁Sud": 2975,
    "cel": 2976,
    "entrée": 2977,
    "▁départ": 2978,
    "▁rendre": 2979,
    "▁Phot": 2980,
    "▁aucun": 2981,
    "ink": 2982,
    "▁décid": 2983,
    "▁collab": 2984,
    "▁résid": 2985,
    "▁grandes": 2986,
    "apon": 2987,
    "▁sport": 2988,
    "▁Res": 2989,
    "▁Avis": 2990,
    "▁Robe": 2991,
    "▁maj": 2992,
    "▁domaine": 2993,
    "isé": 2994,
    "SS": 2995,
    "▁Arch": 2996,
    "fe": 2997,
    "▁Bonjour": 2998,
    "▁obtenir": 2999,
    "▁solution": 3000,
    "lem": 3001,
    "aît": 3002,
    "veur": 3003,
    "▁Chambre": 3004,
    "isser": 3005,
    "▁consid": 3006,
    "▁www": 3007,
    "▁pourquoi": 3008,
    "illon": 3009,
    "▁Commentaires": 3010,
    "do": 3011,
    "aler": 3012,
    "▁Hommes": 3013,
    "▁commentaires": 3014,
    "▁Europe": 3015,
    "▁Top": 3016,
    "arri": 3017,
    "▁Nord": 3018,
    "èles": 3019,
    "▁réponse": 3020,
    "yp": 3021,
    "▁Gén": 3022,
    "▁cœur": 3023,
    "▁Rouge": 3024,
    "▁pied": 3025,
    "Or": 3026,
    "▁aider": 3027,
    "ory": 3028,
    "▁meuble": 3029,
    "▁sav": 3030,
    "rag": 3031,
    "▁clim": 3032,
    "▁mort": 3033,
    "net": 3034,
    "uerre": 3035,
    "▁500": 3036,
    "UM": 3037,
    "▁particulier": 3038,
    "▁souhait": 3039,
    "▁droits": 3040,
    "acer": 3041,
    "OC": 3042,
    "fait": 3043,
    "▁accue": 3044,
    "organis": 3045,
    "AF": 3046,
    "andes": 3047,
    "respond": 3048,
    "tements": 3049,
    "▁Meu": 3050,
    "▁appr": 3051,
    "mpor": 3052,
    "▁Lou": 3053,
    "▁ensemble": 3054,
    "time": 3055,
    "ébec": 3056,
    "▁hôtels": 3057,
    "▁Lo": 3058,
    "▁Conseil": 3059,
    "▁image": 3060,
    "▁Dire": 3061,
    "htt": 3062,
    "venu": 3063,
    "▁tradition": 3064,
    "▁ve": 3065,
    "▁matière": 3066,
    "by": 3067,
    "▁fr": 3068,
    "▁via": 3069,
    "49": 3070,
    "▁atte": 3071,
    "crit": 3072,
    "▁situé": 3073,
    "▁expérience": 3074,
    "▁Chine": 3075,
    "▁concernant": 3076,
    "▁Sy": 3077,
    "illeurs": 3078,
    "▁forum": 3079,
    "oft": 3080,
    "▁aim": 3081,
    "▁parmi": 3082,
    "▁Cet": 3083,
    "▁pot": 3084,
    "tice": 3085,
    "▁quelque": 3086,
    "da": 3087,
    "▁accompagn": 3088,
    "▁(0": 3089,
    "▁construction": 3090,
    "quis": 3091,
    "▁deuxième": 3092,
    "▁plutôt": 3093,
    "tie": 3094,
    "▁expl": 3095,
    "▁choses": 3096,
    "glais": 3097,
    "▁amis": 3098,
    "ali": 3099,
    "▁symp": 3100,
    "issant": 3101,
    "▁rend": 3102,
    "▁piscine": 3103,
    "ronique": 3104,
    "aume": 3105,
    "▁Rec": 3106,
    "ibli": 3107,
    "▁Fab": 3108,
    "▁tarif": 3109,
    "▁conseils": 3110,
    "??": 3111,
    "iversité": 3112,
    "▁38": 3113,
    "▁Photo": 3114,
    "▁mariage": 3115,
    "▁Mac": 3116,
    "ms": 3117,
    "▁Nouveau": 3118,
    "▁conv": 3119,
    "▁rê": 3120,
    "vation": 3121,
    "ary": 3122,
    "actéris": 3123,
    "AIN": 3124,
    "▁cop": 3125,
    "▁Mes": 3126,
    "▁ensuite": 3127,
    "▁Men": 3128,
    "information": 3129,
    "oton": 3130,
    "▁œu": 3131,
    "▁loin": 3132,
    "iki": 3133,
    "▁ca": 3134,
    "▁Achat": 3135,
    "▁Rom": 3136,
    "▁histoire": 3137,
    "▁période": 3138,
    "▁Mi": 3139,
    "▁Est": 3140,
    "▁senti": 3141,
    "▁Pers": 3142,
    "même": 3143,
    "▁cond": 3144,
    "itre": 3145,
    "▁sen": 3146,
    "100": 3147,
    "▁post": 3148,
    "▁@": 3149,
    "▁Lyon": 3150,
    "▁simplement": 3151,
    "▁peau": 3152,
    "▁chef": 3153,
    "oraires": 3154,
    "▁personnel": 3155,
    "▁techniques": 3156,
    "vres": 3157,
    "▁aug": 3158,
    "▁suivant": 3159,
    "ulation": 3160,
    "▁·": 3161,
    "▁appare": 3162,
    "ancement": 3163,
    "▁viol": 3164,
    "▁directement": 3165,
    "▁rendez": 3166,
    "arde": 3167,
    "▁pat": 3168,
    "▁presse": 3169,
    "▁Vis": 3170,
    "inée": 3171,
    "▁spor": 3172,
    "itaires": 3173,
    "▁nationale": 3174,
    "▁Roy": 3175,
    "indows": 3176,
    "▁stru": 3177,
    "▁And": 3178,
    "▁Ins": 3179,
    "téra": 3180,
    "▁complet": 3181,
    "▁commande": 3182,
    "Com": 3183,
    "▁bleu": 3184,
    "▁minim": 3185,
    "IRE": 3186,
    "quête": 3187,
    "▁Jardin": 3188,
    "ount": 3189,
    "▁étaient": 3190,
    "liers": 3191,
    "▁éle": 3192,
    "ailles": 3193,
    "yth": 3194,
    "▁ST": 3195,
    "PE": 3196,
    "▁Inform": 3197,
    "▁disposition": 3198,
    "/12": 3199,
    "▁Lors": 3200,
    "▁taux": 3201,
    "▁lorsque": 3202,
    "tées": 3203,
    "Pro": 3204,
    "aj": 3205,
    "image": 3206,
    "éritable": 3207,
    "parer": 3208,
    "go": 3209,
    "uff": 3210,
    "▁direction": 3211,
    "TS": 3212,
    "▁moteur": 3213,
    "4)": 3214,
    "▁AU": 3215,
    "▁Porte": 3216,
    "▁terre": 3217,
    "hum": 3218,
    "▁enc": 3219,
    "▁bâti": 3220,
    "▁fort": 3221,
    "▁Appartement": 3222,
    "43": 3223,
    "orn": 3224,
    "▁Pant": 3225,
    "▁confir": 3226,
    "▁Sec": 3227,
    "▁source": 3228,
    "ld": 3229,
    "▁(6": 3230,
    "▁impri": 3231,
    "▁Nouvelle": 3232,
    "▁pages": 3233,
    "origine": 3234,
    "▁correspond": 3235,
    "▁vite": 3236,
    "▁procéd": 3237,
    "orité": 3238,
    "▁Nic": 3239,
    "▁Gl": 3240,
    "▁PS": 3241,
    "▁PC": 3242,
    "ducation": 3243,
    "▁anci": 3244,
    "9.": 3245,
    "▁coeur": 3246,
    "km": 3247,
    "écu": 3248,
    "▁ai": 3249,
    "▁amb": 3250,
    "▁Gratu": 3251,
    "ym": 3252,
    "▁édition": 3253,
    "▁lecture": 3254,
    "▁Site": 3255,
    "esse": 3256,
    "Ac": 3257,
    "▁contact": 3258,
    "____": 3259,
    "▁DES": 3260,
    "▁profiter": 3261,
    "▁Del": 3262,
    "▁semaines": 3263,
    "▁top": 3264,
    "▁libre": 3265,
    "inet": 3266,
    "▁traitement": 3267,
    "achat": 3268,
    "leurs": 3269,
    "▁Phili": 3270,
    "▁Jac": 3271,
    "▁valeur": 3272,
    "rac": 3273,
    "▁souhai": 3274,
    "▁cause": 3275,
    "▁emp": 3276,
    "ormais": 3277,
    "▁pi": 3278,
    "▁pil": 3279,
    "▁résultat": 3280,
    "ôme": 3281,
    "cept": 3282,
    "ordeaux": 3283,
    "▁PAR": 3284,
    "▁Pal": 3285,
    "tro": 3286,
    "UL": 3287,
    "autes": 3288,
    ");": 3289,
    "▁maî": 3290,
    "Re": 3291,
    "▁qual": 3292,
    "▁communication": 3293,
    "▁améli": 3294,
    "▁choc": 3295,
    "▁vont": 3296,
    "df": 3297,
    "nements": 3298,
    "érap": 3299,
    "ources": 3300,
    "Ex": 3301,
    "▁Veste": 3302,
    "▁fai": 3303,
    "▁Facebook": 3304,
    "nous": 3305,
    "enir": 3306,
    "▁Rose": 3307,
    "less": 3308,
    "▁Conc": 3309,
    "▁Restaur": 3310,
    "▁semble": 3311,
    "55": 3312,
    "hor": 3313,
    "log": 3314,
    "▁social": 3315,
    "▁Enf": 3316,
    "dique": 3317,
    "icher": 3318,
    "▁enti": 3319,
    "estre": 3320,
    "▁pourrez": 3321,
    "▁Cela": 3322,
    "▁Découvrez": 3323,
    "▁réaliser": 3324,
    "▁mas": 3325,
    "odes": 3326,
    "32": 3327,
    "▁Tro": 3328,
    "ource": 3329,
    "▁cab": 3330,
    "▁Main": 3331,
    "▁méth": 3332,
    "obile": 3333,
    "▁Bo": 3334,
    "▁AN": 3335,
    "ray": 3336,
    "▁streaming": 3337,
    "▁Sans": 3338,
    "▁seule": 3339,
    "▁ta": 3340,
    "auté": 3341,
    "hési": 3342,
    "pren": 3343,
    "▁devrait": 3344,
    "▁nég": 3345,
    "▁2,": 3346,
    "gique": 3347,
    "seille": 3348,
    "▁univers": 3349,
    "▁Ec": 3350,
    "▁sûr": 3351,
    "▁Haute": 3352,
    "afé": 3353,
    "cience": 3354,
    "▁Champ": 3355,
    "▁conser": 3356,
    "azon": 3357,
    "alisé": 3358,
    "lette": 3359,
    "▁Noël": 3360,
    "duits": 3361,
    "pendant": 3362,
    "Hotel": 3363,
    "lande": 3364,
    "aune": 3365,
    "▁stratég": 3366,
    "▁By": 3367,
    "homme": 3368,
    "▁diffus": 3369,
    "chés": 3370,
    "ester": 3371,
    "/11": 3372,
    "ètre": 3373,
    "érif": 3374,
    "▁mouve": 3375,
    "86": 3376,
    "quent": 3377,
    "yd": 3378,
    "▁tent": 3379,
    "ende": 3380,
    "▁week": 3381,
    "Par": 3382,
    "▁national": 3383,
    "▁retra": 3384,
    "▁nu": 3385,
    "1)": 3386,
    "issez": 3387,
    "▁→": 3388,
    "/2018": 3389,
    "▁AR": 3390,
    "oux": 3391,
    "▁mots": 3392,
    "37": 3393,
    "▁excell": 3394,
    "▁fru": 3395,
    "▁jouer": 3396,
    "▁industri": 3397,
    "▁Google": 3398,
    "▁Lit": 3399,
    "▁vivre": 3400,
    "▁respec": 3401,
    "onner": 3402,
    "▁meilleure": 3403,
    "ainte": 3404,
    "▁individ": 3405,
    "▁prest": 3406,
    "▁contrôle": 3407,
    "▁bénéfici": 3408,
    "▁référence": 3409,
    "▁suivre": 3410,
    "activité": 3411,
    "▁pours": 3412,
    "▁évé": 3413,
    "▁Québec": 3414,
    "▁vin": 3415,
    "▁souhaitez": 3416,
    "▁trouvé": 3417,
    "ings": 3418,
    "▁oblig": 3419,
    "St": 3420,
    "▁39": 3421,
    "alyse": 3422,
    "▁Marie": 3423,
    "▁retrouver": 3424,
    "▁aj": 3425,
    "novation": 3426,
    "rons": 3427,
    "ral": 3428,
    "aliser": 3429,
    "atifs": 3430,
    "ks": 3431,
    "▁peux": 3432,
    "ST": 3433,
    "▁maxim": 3434,
    "atel": 3435,
    "▁scol": 3436,
    "▁ordin": 3437,
    "▁médec": 3438,
    "▁Cou": 3439,
    "après": 3440,
    "▁Num": 3441,
    "▁électrique": 3442,
    "ulte": 3443,
    "▁Jus": 3444,
    "UB": 3445,
    "▁risque": 3446,
    "▁magnif": 3447,
    "▁div": 3448,
    "▁annonces": 3449,
    "▁physi": 3450,
    "▁Non": 3451,
    "ablement": 3452,
    "▁graph": 3453,
    "amour": 3454,
    "▁livraison": 3455,
    "ublique": 3456,
    "▁Salon": 3457,
    "eter": 3458,
    "▁chaussures": 3459,
    "▁was": 3460,
    "▁nécessaire": 3461,
    "▁der": 3462,
    "▁siècle": 3463,
    ",00": 3464,
    "▁document": 3465,
    "roid": 3466,
    "ague": 3467,
    "▁SE": 3468,
    "▁3.": 3469,
    "RES": 3470,
    "▁All": 3471,
    "▁terme": 3472,
    "▁économique": 3473,
    "▁Rég": 3474,
    "▁dernières": 3475,
    "/2019": 3476,
    "▁extra": 3477,
    "fois": 3478,
    "atin": 3479,
    "▁spectac": 3480,
    "tivement": 3481,
    "▁Sandales": 3482,
    "tils": 3483,
    "ateau": 3484,
    "▁Prin": 3485,
    "urance": 3486,
    "iennent": 3487,
    "▁Selon": 3488,
    "imm": 3489,
    "alogue": 3490,
    "asser": 3491,
    "▁appré": 3492,
    "âtre": 3493,
    "quée": 3494,
    "▁autant": 3495,
    "▁scène": 3496,
    "▁Mor": 3497,
    "ynam": 3498,
    "Phone": 3499,
    "ennent": 3500,
    "▁Acheter": 3501,
    "▁Sé": 3502,
    "▁parfois": 3503,
    "ii": 3504,
    "▁restaurant": 3505,
    "▁2007": 3506,
    "▁position": 3507,
    "▁tiss": 3508,
    "▁vais": 3509,
    "▁réguli": 3510,
    "/01": 3511,
    "▁bel": 3512,
    "▁sociaux": 3513,
    "▁rencontres": 3514,
    "ouvre": 3515,
    "▁publié": 3516,
    "▁Ber": 3517,
    "▁permis": 3518,
    "▁gratuitement": 3519,
    "ior": 3520,
    "▁prochain": 3521,
    "/2017": 3522,
    "▁rôle": 3523,
    "▁cuis": 3524,
    "47": 3525,
    "ourt": 3526,
    "ft": 3527,
    "▁Toutes": 3528,
    "▁Stra": 3529,
    "▁parler": 3530,
    "intérieur": 3531,
    "▁accord": 3532,
    "léments": 3533,
    "-19": 3534,
    "bo": 3535,
    "▁Lac": 3536,
    "▁connec": 3537,
    "▁Michel": 3538,
    "▁offici": 3539,
    "▁soirée": 3540,
    "▁village": 3541,
    "▁François": 3542,
    "▁Pat": 3543,
    "▁Chris": 3544,
    "▁doivent": 3545,
    "▁Den": 3546,
    "sements": 3547,
    "ITE": 3548,
    "▁répondre": 3549,
    "▁Tw": 3550,
    "▁IS": 3551,
    "avais": 3552,
    "▁cra": 3553,
    "▁PL": 3554,
    "▁abs": 3555,
    "▁enreg": 3556,
    "France": 3557,
    "▁zone": 3558,
    "▁oui": 3559,
    "OB": 3560,
    "▁recommand": 3561,
    "▁Très": 3562,
    "▁Joh": 3563,
    "▁fig": 3564,
    "rec": 3565,
    "▁petites": 3566,
    "\":": 3567,
    "▁facilement": 3568,
    "▁solutions": 3569,
    "inte": 3570,
    "▁Dan": 3571,
    "----": 3572,
    "▁Part": 3573,
    "▁cheveux": 3574,
    "FR": 3575,
    "97": 3576,
    "ootball": 3577,
    "▁permettre": 3578,
    "ration": 3579,
    "▁four": 3580,
    "dy": 3581,
    "▁format": 3582,
    "lications": 3583,
    "ifest": 3584,
    "ribution": 3585,
    "oupes": 3586,
    "▁voix": 3587,
    "▁longue": 3588,
    "▁supplément": 3589,
    "ning": 3590,
    "/06": 3591,
    "lanche": 3592,
    "▁Fer": 3593,
    "▁poste": 3594,
    "▁Reg": 3595,
    "▁derniers": 3596,
    "ool": 3597,
    "▁Inst": 3598,
    "ower": 3599,
    "Am": 3600,
    "▁cre": 3601,
    "▁Mis": 3602,
    "▁succès": 3603,
    "quelle": 3604,
    "▁Mas": 3605,
    "ONT": 3606,
    "▁durée": 3607,
    "oilà": 3608,
    "▁désormais": 3609,
    "▁Club": 3610,
    "▁Tar": 3611,
    "/05": 3612,
    "lage": 3613,
    "▁contenu": 3614,
    "▁Référence": 3615,
    "▁Chaussure": 3616,
    "▁laisser": 3617,
    "▁Tags": 3618,
    "uve": 3619,
    "▁financi": 3620,
    "▁satis": 3621,
    "rale": 3622,
    "exp": 3623,
    "Cl": 3624,
    "31": 3625,
    "hen": 3626,
    "▁Lunettes": 3627,
    "▁dél": 3628,
    "▁aide": 3629,
    "▁Pays": 3630,
    "▁LES": 3631,
    "▁durant": 3632,
    "6.": 3633,
    "ANT": 3634,
    "/03": 3635,
    "▁confiance": 3636,
    "▁Techn": 3637,
    "▁Id": 3638,
    "▁venir": 3639,
    "titude": 3640,
    "orme": 3641,
    "▁mur": 3642,
    "▁MA": 3643,
    "▁histor": 3644,
    "▁bébé": 3645,
    "▁Vi": 3646,
    "▁Fond": 3647,
    "▁!!": 3648,
    "▁mobil": 3649,
    "▁compris": 3650,
    "▁Toul": 3651,
    "▁genre": 3652,
    "▁paris": 3653,
    "▁Camp": 3654,
    "QU": 3655,
    "▁mun": 3656,
    "ual": 3657,
    "abord": 3658,
    "▁48": 3659,
    "▁enfin": 3660,
    "▁étant": 3661,
    "▁Inf": 3662,
    "▁album": 3663,
    "▁Tu": 3664,
    "▁chacun": 3665,
    "▁Peti": 3666,
    "▁aurait": 3667,
    "▁psych": 3668,
    "▁Ep": 3669,
    "▁altern": 3670,
    "énagement": 3671,
    "▁nett": 3672,
    "umes": 3673,
    "▁naturel": 3674,
    "▁domicile": 3675,
    "▁Quand": 3676,
    "ariat": 3677,
    "▁bus": 3678,
    "▁papier": 3679,
    "▁supéri": 3680,
    "▁mobile": 3681,
    "▁Ban": 3682,
    "IV": 3683,
    "▁vert": 3684,
    "▁donné": 3685,
    "▁marche": 3686,
    "olf": 3687,
    "▁état": 3688,
    "▁initi": 3689,
    "▁Cent": 3690,
    "▁Petit": 3691,
    "▁PRO": 3692,
    "▁suivi": 3693,
    "ignes": 3694,
    "école": 3695,
    "atrice": 3696,
    "isez": 3697,
    "▁Paul": 3698,
    "ôte": 3699,
    "accueil": 3700,
    "▁diffic": 3701,
    "▁Forum": 3702,
    "êche": 3703,
    "▁vois": 3704,
    "▁micro": 3705,
    "▁Bottes": 3706,
    "INE": 3707,
    ".,": 3708,
    "▁terrasse": 3709,
    "entielle": 3710,
    "▁Dav": 3711,
    "▁élè": 3712,
    "▁lut": 3713,
    "▁communi": 3714,
    "élè": 3715,
    "▁véritable": 3716,
    "▁dév": 3717,
    "▁étoiles": 3718,
    "ket": 3719,
    "lées": 3720,
    "Au": 3721,
    "▁air": 3722,
    "▁Deux": 3723,
    "arité": 3724,
    "▁certaines": 3725,
    "▁Oui": 3726,
    "tenu": 3727,
    "olas": 3728,
    "èse": 3729,
    "▁réussi": 3730,
    "▁Ed": 3731,
    "▁Commun": 3732,
    "▁gratuite": 3733,
    "▁immobil": 3734,
    "rimer": 3735,
    "▁devis": 3736,
    "2-": 3737,
    "tir": 3738,
    "ordre": 3739,
    "▁train": 3740,
    "SI": 3741,
    "▁fen": 3742,
    "tudio": 3743,
    "▁circ": 3744,
    "▁amp": 3745,
    "▁laquelle": 3746,
    "oulez": 3747,
    "▁tard": 3748,
    "▁rej": 3749,
    "mon": 3750,
    "itez": 3751,
    "▁Chem": 3752,
    "▁sil": 3753,
    "▁meilleures": 3754,
    "▁(201": 3755,
    "▁soutien": 3756,
    "ifi": 3757,
    "▁milieu": 3758,
    "ube": 3759,
    "▁MAR": 3760,
    "accès": 3761,
    "ypes": 3762,
    "▁pleine": 3763,
    "▁Ital": 3764,
    "▁Windows": 3765,
    "ttes": 3766,
    "ish": 3767,
    "▁premiers": 3768,
    "quette": 3769,
    "▁Grande": 3770,
    "ott": 3771,
    "sibles": 3772,
    "ader": 3773,
    "▁Red": 3774,
    "▁Po": 3775,
    "alons": 3776,
    "▁attend": 3777,
    "▁parents": 3778,
    "aises": 3779,
    "▁100%": 3780,
    "▁impos": 3781,
    "▁comprend": 3782,
    "▁Code": 3783,
    "▁cinq": 3784,
    "ial": 3785,
    "cident": 3786,
    "alu": 3787,
    "»,": 3788,
    "anim": 3789,
    "olie": 3790,
    "▁Ali": 3791,
    "▁Peu": 3792,
    "roir": 3793,
    "gh": 3794,
    "▁administra": 3795,
    "▁joueurs": 3796,
    "▁Aujourd": 3797,
    "▁pou": 3798,
    "▁Qui": 3799,
    "oiture": 3800,
    "bourg": 3801,
    "▁relation": 3802,
    "▁Livre": 3803,
    "▁sociale": 3804,
    "▁Rel": 3805,
    "▁bra": 3806,
    "▁Premi": 3807,
    "/04": 3808,
    "affaires": 3809,
    "▁Blog": 3810,
    "▁propriété": 3811,
    "▁Har": 3812,
    "▁regard": 3813,
    "▁Couleur": 3814,
    "▁civ": 3815,
    "▁espace": 3816,
    "rét": 3817,
    "actu": 3818,
    "olet": 3819,
    "▁actuellement": 3820,
    "▁campagne": 3821,
    "fi": 3822,
    "▁55": 3823,
    "TC": 3824,
    "▁process": 3825,
    "▁red": 3826,
    "ING": 3827,
    "FF": 3828,
    "comm": 3829,
    "▁Classi": 3830,
    "ordonn": 3831,
    "▁meubles": 3832,
    "iversaire": 3833,
    "itif": 3834,
    "ker": 3835,
    "▁partager": 3836,
    "/07": 3837,
    "émin": 3838,
    "za": 3839,
    "▁répond": 3840,
    "itée": 3841,
    "▁lanc": 3842,
    "▁yeux": 3843,
    "▁quartier": 3844,
    "▁bud": 3845,
    "68": 3846,
    "▁Eur": 3847,
    "/09": 3848,
    "tition": 3849,
    "élo": 3850,
    "▁Bordeaux": 3851,
    "▁lu": 3852,
    "▁vir": 3853,
    "▁ouvert": 3854,
    "aude": 3855,
    "olat": 3856,
    "▁>>": 3857,
    "▁Mess": 3858,
    "embre": 3859,
    "▁films": 3860,
    "anie": 3861,
    "▁tes": 3862,
    "ola": 3863,
    "view": 3864,
    "ero": 3865,
    "▁this": 3866,
    "▁stand": 3867,
    "lam": 3868,
    "▁Por": 3869,
    "▁origin": 3870,
    "oudre": 3871,
    "▁plac": 3872,
    "abil": 3873,
    "▁4.": 3874,
    "▁roman": 3875,
    "ye": 3876,
    "▁accès": 3877,
    "énergie": 3878,
    "▁endro": 3879,
    "▁Dr": 3880,
    "▁marques": 3881,
    "Etat": 3882,
    "▁contacter": 3883,
    "▁moyenne": 3884,
    "▁hors": 3885,
    "ene": 3886,
    "HE": 3887,
    "urr": 3888,
    "▁équ": 3889,
    "expl": 3890,
    "ILL": 3891,
    "▁AL": 3892,
    "liquer": 3893,
    "ilan": 3894,
    "▁sud": 3895,
    "argent": 3896,
    "▁navig": 3897,
    "▁Hôtels": 3898,
    "▁COM": 3899,
    "icip": 3900,
    "▁quotidien": 3901,
    "▁aliment": 3902,
    "▁problèmes": 3903,
    "▁aucune": 3904,
    "gg": 3905,
    "mont": 3906,
    "térieure": 3907,
    "▁Dur": 3908,
    "▁We": 3909,
    "▁lumière": 3910,
    "ciences": 3911,
    "▁San": 3912,
    "▁prochaine": 3913,
    "raient": 3914,
    "MENT": 3915,
    "oleil": 3916,
    "▁fré": 3917,
    "TER": 3918,
    "▁douce": 3919,
    "dis": 3920,
    "▁capit": 3921,
    "▁arch": 3922,
    "▁Journ": 3923,
    "actéristiques": 3924,
    "/02": 3925,
    "ensions": 3926,
    "▁parfait": 3927,
    "vés": 3928,
    "▁équip": 3929,
    "▁total": 3930,
    "▁ir": 3931,
    "tines": 3932,
    "▁modèles": 3933,
    "▁Imm": 3934,
    "ura": 3935,
    "▁300": 3936,
    "ores": 3937,
    "▁contrat": 3938,
    "col": 3939,
    "42": 3940,
    "oisirs": 3941,
    "▁ailleurs": 3942,
    "▁Marseille": 3943,
    "qués": 3944,
    "▁commerce": 3945,
    "istère": 3946,
    "▁numérique": 3947,
    "▁pratiques": 3948,
    "▁HD": 3949,
    "▁prog": 3950,
    "▁présence": 3951,
    "▁existe": 3952,
    "▁trouverez": 3953,
    "iblioth": 3954,
    "▁Jan": 3955,
    "cteurs": 3956,
    "ares": 3957,
    "fer": 3958,
    "▁méc": 3959,
    "oiff": 3960,
    "▁dén": 3961,
    "▁Vie": 3962,
    "▁transform": 3963,
    "isode": 3964,
    "▁978": 3965,
    "OG": 3966,
    "▁doute": 3967,
    "▁environnement": 3968,
    "▁confér": 3969,
    "▁wh": 3970,
    "▁texte": 3971,
    "▁magasin": 3972,
    "cer": 3973,
    "▁faites": 3974,
    "▁Cre": 3975,
    "eth": 3976,
    "▁mém": 3977,
    "▁lieux": 3978,
    "79": 3979,
    "expéri": 3980,
    "AV": 3981,
    "uisse": 3982,
    "▁CD": 3983,
    "ses": 3984,
    "▁véhicule": 3985,
    "▁verre": 3986,
    "▁support": 3987,
    "espace": 3988,
    "va": 3989,
    "ycl": 3990,
    "▁boî": 3991,
    "ignement": 3992,
    "ha": 3993,
    "▁guerre": 3994,
    "▁Meille": 3995,
    "▁renfor": 3996,
    "naire": 3997,
    "Europe": 3998,
    "▁permettant": 3999,
    "▁fournisse": 4000,
    "▁Sil": 4001,
    "▁lab": 4002,
    "▁idées": 4003,
    "unis": 4004,
    "▁pose": 4005,
    "▁catégorie": 4006,
    "▁0,": 4007,
    "▁tomb": 4008,
    "▁possibilité": 4009,
    "▁repr": 4010,
    "auts": 4011,
    "▁force": 4012,
    "riques": 4013,
    "▁logiciel": 4014,
    "intage": 4015,
    "AY": 4016,
    "bres": 4017,
    "6,": 4018,
    "▁transport": 4019,
    "EU": 4020,
    "lections": 4021,
    "▁gauche": 4022,
    "▁Li": 4023,
    "ieuse": 4024,
    "▁32": 4025,
    "-1": 4026,
    "▁Alex": 4027,
    "▁plage": 4028,
    "keting": 4029,
    "▁souff": 4030,
    "▁droite": 4031,
    "▁agréable": 4032,
    "▁automatique": 4033,
    "▁prob": 4034,
    "éroport": 4035,
    "▁Ainsi": 4036,
    "▁changer": 4037,
    "▁exper": 4038,
    "euille": 4039,
    "itesse": 4040,
    "▁République": 4041,
    "▁tém": 4042,
    "▁métal": 4043,
    "joux": 4044,
    "3)": 4045,
    "aign": 4046,
    "▁manger": 4047,
    "▁villes": 4048,
    "▁mauv": 4049,
    "▁Perm": 4050,
    "del": 4051,
    "▁Résult": 4052,
    "men": 4053,
    "▁Franc": 4054,
    "orld": 4055,
    "▁GR": 4056,
    "▁incl": 4057,
    "▁écl": 4058,
    "▁You": 4059,
    "termin": 4060,
    "roit": 4061,
    "▁course": 4062,
    "▁simil": 4063,
    "oyez": 4064,
    "▁manque": 4065,
    "ctures": 4066,
    "▁Mari": 4067,
    "▁propriét": 4068,
    "ILLE": 4069,
    "▁Orig": 4070,
    "étéo": 4071,
    "▁Livres": 4072,
    "▁Dem": 4073,
    "issent": 4074,
    "▁générale": 4075,
    "assage": 4076,
    "CO": 4077,
    "▁ami": 4078,
    "▁publique": 4079,
    "▁proposer": 4080,
    "CT": 4081,
    "▁Star": 4082,
    "▁proches": 4083,
    "AGE": 4084,
    "▁Meuble": 4085,
    "41": 4086,
    "alie": 4087,
    "éber": 4088,
    "▁My": 4089,
    "bi": 4090,
    "assé": 4091,
    "IP": 4092,
    "▁éléments": 4093,
    "uré": 4094,
    "illi": 4095,
    "▁dossier": 4096,
    "égories": 4097,
    "▁Lond": 4098,
    "▁concours": 4099,
    "▁peinture": 4100,
    "▁difficile": 4101,
    "ommage": 4102,
    "/08": 4103,
    "ausse": 4104,
    "issance": 4105,
    "▁réseaux": 4106,
    "▁poly": 4107,
    "▁indép": 4108,
    "▁Trip": 4109,
    "dessous": 4110,
    "▁responsable": 4111,
    "▁vérif": 4112,
    "aye": 4113,
    "tile": 4114,
    "2020": 4115,
    "▁machine": 4116,
    "ibilité": 4117,
    "▁Etats": 4118,
    "aitement": 4119,
    "▁Bus": 4120,
    "▁outils": 4121,
    "br": 4122,
    "▁bains": 4123,
    "ister": 4124,
    "▁Bre": 4125,
    "association": 4126,
    "uk": 4127,
    "vage": 4128,
    "▁fils": 4129,
    "▁activité": 4130,
    "▁music": 4131,
    "roy": 4132,
    "▁habitants": 4133,
    "▁salari": 4134,
    "▁Autres": 4135,
    "▁Rue": 4136,
    "▁crois": 4137,
    "▁Contac": 4138,
    "▁soins": 4139,
    "pport": 4140,
    "réal": 4141,
    "▁travailler": 4142,
    "▁louer": 4143,
    "▁vic": 4144,
    "▁pal": 4145,
    "agé": 4146,
    "sident": 4147,
    "▁Auteur": 4148,
    "telier": 4149,
    "ora": 4150,
    "▁liber": 4151,
    "ications": 4152,
    "ination": 4153,
    "▁États": 4154,
    "▁Rencontre": 4155,
    "ound": 4156,
    "cientif": 4157,
    "▁chaî": 4158,
    "</": 4159,
    "êmes": 4160,
    "▁voulez": 4161,
    "▁Ajouter": 4162,
    "▁envie": 4163,
    "▁oub": 4164,
    "▁Cab": 4165,
    "auff": 4166,
    "éder": 4167,
    "▁matériel": 4168,
    "GE": 4169,
    "▁tran": 4170,
    "▁Fre": 4171,
    "▁recevoir": 4172,
    "▁AM": 4173,
    "▁dispose": 4174,
    "▁Bain": 4175,
    "▁devez": 4176,
    "▁professionnelle": 4177,
    "▁directeur": 4178,
    "▁sort": 4179,
    "▁bons": 4180,
    "moine": 4181,
    "▁devient": 4182,
    "▁Martin": 4183,
    "▁montre": 4184,
    "▁san": 4185,
    "oté": 4186,
    "sive": 4187,
    "▁Art": 4188,
    "▁comprendre": 4189,
    "illets": 4190,
    "ather": 4191,
    "89": 4192,
    "▁Jeux": 4193,
    "▁hôtel": 4194,
    "bert": 4195,
    "bon": 4196,
    "▁150": 4197,
    "▁af": 4198,
    "▁idéal": 4199,
    "▁détail": 4200,
    "/2016": 4201,
    "VD": 4202,
    "▁télécharger": 4203,
    "▁has": 4204,
    "%20": 4205,
    "▁thème": 4206,
    "çons": 4207,
    "▁spécif": 4208,
    "▁annoncé": 4209,
    "▁utilisé": 4210,
    "▁partenaires": 4211,
    "ater": 4212,
    "▁CO": 4213,
    "!!!!": 4214,
    "uche": 4215,
    "▁conception": 4216,
    "tente": 4217,
    "▁anglais": 4218,
    "▁accueill": 4219,
    "ga": 4220,
    "7)": 4221,
    "▁mission": 4222,
    "▁Date": 4223,
    "▁décidé": 4224,
    "On": 4225,
    "euros": 4226,
    "▁garde": 4227,
    "▁Sim": 4228,
    "▁3,": 4229,
    "ste": 4230,
    "▁dér": 4231,
    "▁Mons": 4232,
    "▁respect": 4233,
    "▁moderne": 4234,
    "istant": 4235,
    "deur": 4236,
    "ta": 4237,
    "▁vas": 4238,
    "▁remp": 4239,
    "▁famili": 4240,
    "fl": 4241,
    "wn": 4242,
    "▁fichier": 4243,
    "▁dési": 4244,
    "accord": 4245,
    "▁rose": 4246,
    "▁auto": 4247,
    "▁ventes": 4248,
    "▁proté": 4249,
    "▁Hol": 4250,
    "▁volont": 4251,
    "▁changement": 4252,
    "▁install": 4253,
    "▁longtemps": 4254,
    "▁Sou": 4255,
    "▁insp": 4256,
    "▁occasion": 4257,
    "uner": 4258,
    "▁animaux": 4259,
    "▁utilisateurs": 4260,
    "▁33": 4261,
    "▁fête": 4262,
    "▁cartes": 4263,
    "▁précédent": 4264,
    "▁John": 4265,
    "abl": 4266,
    "html": 4267,
    "▁Recherche": 4268,
    "iction": 4269,
    "▁chemin": 4270,
    "▁Rem": 4271,
    "inois": 4272,
    "pens": 4273,
    "▁gaz": 4274,
    "tor": 4275,
    "▁Sui": 4276,
    "▁Trav": 4277,
    "alle": 4278,
    "▁Anne": 4279,
    "▁prot": 4280,
    "umé": 4281,
    "▁Juin": 4282,
    "Voir": 4283,
    "▁vide": 4284,
    "hi": 4285,
    "vence": 4286,
    "▁presque": 4287,
    "▁Log": 4288,
    "▁compagnie": 4289,
    "▁expos": 4290,
    "ologies": 4291,
    "▁iPhone": 4292,
    "▁portes": 4293,
    "▁paie": 4294,
    "▁exception": 4295,
    "offre": 4296,
    "tière": 4297,
    "▁remar": 4298,
    "ustrie": 4299,
    "▁Nov": 4300,
    "▁connu": 4301,
    "▁Film": 4302,
    "▁›": 4303,
    "vide": 4304,
    "▁devenir": 4305,
    "▁accessoires": 4306,
    "▁déclaré": 4307,
    "▁décision": 4308,
    "▁gris": 4309,
    "Hôtels": 4310,
    "▁Sk": 4311,
    "▁plupart": 4312,
    "▁réd": 4313,
    "apis": 4314,
    "atrimoine": 4315,
    "▁chance": 4316,
    "▁international": 4317,
    "▁Met": 4318,
    "▁cadeau": 4319,
    "▁calme": 4320,
    "▁élèves": 4321,
    "▁37": 4322,
    "▁Christ": 4323,
    "▁processus": 4324,
    "▁Philippe": 4325,
    "no": 4326,
    "▁Ca": 4327,
    "▁doll": 4328,
    "▁certif": 4329,
    "chant": 4330,
    "▁bonnes": 4331,
    "▁adresse": 4332,
    "▁mouvement": 4333,
    "▁II": 4334,
    "entôt": 4335,
    "enant": 4336,
    "▁acces": 4337,
    "▁permettent": 4338,
    "▁Online": 4339,
    "▁père": 4340,
    "hésitez": 4341,
    "▁types": 4342,
    "▁diri": 4343,
    "▁repas": 4344,
    "chi": 4345,
    "onnée": 4346,
    "▁voitures": 4347,
    "▁rappel": 4348,
    "igue": 4349,
    "ission": 4350,
    "pital": 4351,
    "▁boutique": 4352,
    "▁opéra": 4353,
    "▁aime": 4354,
    "crire": 4355,
    "▁écri": 4356,
    "▁idée": 4357,
    "▁Pourquoi": 4358,
    "▁précis": 4359,
    "5.": 4360,
    "aug": 4361,
    "alien": 4362,
    "▁belles": 4363,
    "meub": 4364,
    "▁Tur": 4365,
    "▁Pap": 4366,
    "lent": 4367,
    "▁CL": 4368,
    "dex": 4369,
    "▁199": 4370,
    "▁Lu": 4371,
    "▁celles": 4372,
    "entin": 4373,
    "▁parcours": 4374,
    "▁prêt": 4375,
    "aix": 4376,
    "De": 4377,
    "tiste": 4378,
    "IA": 4379,
    "ranger": 4380,
    "uaire": 4381,
    "oter": 4382,
    "▁gu": 4383,
    "67": 4384,
    "▁Coupe": 4385,
    "▁Sign": 4386,
    "▁eau": 4387,
    "▁Réf": 4388,
    "▁concert": 4389,
    "▁mère": 4390,
    "▁efficace": 4391,
    "▁dynam": 4392,
    "▁poids": 4393,
    "veill": 4394,
    "und": 4395,
    "▁détails": 4396,
    "▁{": 4397,
    "▁Mé": 4398,
    "telle": 4399,
    "crip": 4400,
    "ani": 4401,
    "▁recru": 4402,
    "TM": 4403,
    "ated": 4404,
    "èche": 4405,
    "▁suffit": 4406,
    "▁34": 4407,
    "▁Ess": 4408,
    "▁SP": 4409,
    "▁Monde": 4410,
    "▁magnifique": 4411,
    "▁coupe": 4412,
    "▁Gi": 4413,
    "onses": 4414,
    "▁Bat": 4415,
    "▁équipes": 4416,
    "▁Exp": 4417,
    "▁mini": 4418,
    "▁dipl": 4419,
    "heur": 4420,
    "▁Bri": 4421,
    "▁classique": 4422,
    ".\"": 4423,
    "▁connaître": 4424,
    "▁permettra": 4425,
    "erb": 4426,
    "▁sait": 4427,
    "▁rense": 4428,
    "▁souhaite": 4429,
    "▁Photos": 4430,
    "▁tendance": 4431,
    "▁pén": 4432,
    "▁reven": 4433,
    "▁exclus": 4434,
    "uration": 4435,
    "apé": 4436,
    "application": 4437,
    "▁gal": 4438,
    "itch": 4439,
    "▁internationale": 4440,
    "▁perman": 4441,
    "▁conséqu": 4442,
    "▁quelle": 4443,
    "▁cinéma": 4444,
    "uter": 4445,
    "mée": 4446,
    "ney": 4447,
    "▁couple": 4448,
    "▁manifest": 4449,
    "▁rob": 4450,
    "vet": 4451,
    "iness": 4452,
    "▁six": 4453,
    "▁Service": 4454,
    "▁Cr": 4455,
    "▁lequel": 4456,
    "▁court": 4457,
    "▁population": 4458,
    "mières": 4459,
    "xion": 4460,
    "▁él": 4461,
    "▁Bern": 4462,
    "ocra": 4463,
    "▁signif": 4464,
    "omp": 4465,
    "arg": 4466,
    "▁vict": 4467,
    "oub": 4468,
    "gements": 4469,
    "▁recette": 4470,
    "▁capacité": 4471,
    "uté": 4472,
    "▁David": 4473,
    "▁tempéra": 4474,
    "▁Sw": 4475,
    "▁continu": 4476,
    "▁kil": 4477,
    "▁note": 4478,
    "neak": 4479,
    "▁Carte": 4480,
    "ica": 4481,
    "▁guide": 4482,
    "▁Lam": 4483,
    "▁complète": 4484,
    "▁station": 4485,
    "ARD": 4486,
    "▁chat": 4487,
    "▁beauté": 4488,
    "▁habitu": 4489,
    "▁mètres": 4490,
    "▁Vêtements": 4491,
    "environnement": 4492,
    "▁réalisé": 4493,
    "▁fonctionn": 4494,
    "▁Description": 4495,
    "▁célè": 4496,
    "▁Belgique": 4497,
    "▁Société": 4498,
    "▁vidéos": 4499,
    "uma": 4500,
    "uler": 4501,
    "▁séri": 4502,
    "▁scientif": 4503,
    "▁65": 4504,
    "http": 4505,
    "sibil": 4506,
    "semble": 4507,
    "▁objets": 4508,
    "appel": 4509,
    "▁places": 4510,
    "▁iss": 4511,
    "endra": 4512,
    "▁avaient": 4513,
    "uels": 4514,
    "xe": 4515,
    "OD": 4516,
    "▁commercial": 4517,
    "iration": 4518,
    "▁municip": 4519,
    "▁hauteur": 4520,
    "site": 4521,
    "▁photograph": 4522,
    "▁Enfin": 4523,
    "▁décor": 4524,
    "informations": 4525,
    "▁Nicolas": 4526,
    "▁Puis": 4527,
    "▁parle": 4528,
    "▁Anti": 4529,
    "ya": 4530,
    "bat": 4531,
    "▁employ": 4532,
    "pel": 4533,
    "ologue": 4534,
    "▁rester": 4535,
    "▁surface": 4536,
    "▁Anim": 4537,
    "xte": 4538,
    "▁immédi": 4539,
    "cé": 4540,
    "8)": 4541,
    "▁Prom": 4542,
    "ogne": 4543,
    "▁enregist": 4544,
    "Ag": 4545,
    "▁dédi": 4546,
    "ham": 4547,
    "▁Modèle": 4548,
    "▁Mét": 4549,
    "▁Maroc": 4550,
    "▁passage": 4551,
    "▁mises": 4552,
    "▁maisons": 4553,
    "▁multip": 4554,
    "gén": 4555,
    "▁bre": 4556,
    "▁dépos": 4557,
    "verse": 4558,
    "▁territoire": 4559,
    "▁Download": 4560,
    "▁Blue": 4561,
    "▁commencer": 4562,
    "ires": 4563,
    "tences": 4564,
    "pour": 4565,
    "▁42": 4566,
    "▁soient": 4567,
    "▁CON": 4568,
    "oom": 4569,
    "▁Lum": 4570,
    "▁Type": 4571,
    "▁fre": 4572,
    "▁bande": 4573,
    "▁promotion": 4574,
    "▁my": 4575,
    "▁ressources": 4576,
    "rat": 4577,
    "▁Mini": 4578,
    "liss": 4579,
    "▁dispar": 4580,
    "ja": 4581,
    "ènes": 4582,
    "adap": 4583,
    "▁panne": 4584,
    "adie": 4585,
    "▁Actualités": 4586,
    "cles": 4587,
    "▁Empl": 4588,
    "▁police": 4589,
    "atch": 4590,
    "▁ap": 4591,
    "MA": 4592,
    "▁mesures": 4593,
    "▁cos": 4594,
    "9)": 4595,
    "▁1/": 4596,
    "▁croissance": 4597,
    "▁parfaitement": 4598,
    "▁tax": 4599,
    "▁uniquement": 4600,
    "▁online": 4601,
    "visor": 4602,
    "annes": 4603,
    "▁bio": 4604,
    "▁café": 4605,
    "ologiques": 4606,
    "chargement": 4607,
    "▁chans": 4608,
    "▁Fait": 4609,
    "▁consult": 4610,
    "▁gagner": 4611,
    "oz": 4612,
    "▁actions": 4613,
    "▁Oli": 4614,
    "▁plat": 4615,
    "Saint": 4616,
    "atur": 4617,
    "quettes": 4618,
    "nom": 4619,
    "▁porter": 4620,
    "▁tels": 4621,
    "▁milliards": 4622,
    "▁achat": 4623,
    "état": 4624,
    "IF": 4625,
    "▁distance": 4626,
    "euvre": 4627,
    "▁dig": 4628,
    "▁Soleil": 4629,
    "▁Haut": 4630,
    "▁commence": 4631,
    "▁Dieu": 4632,
    "▁free": 4633,
    "▁gui": 4634,
    "annonce": 4635,
    "▁fonds": 4636,
    "▁repos": 4637,
    "▁tom": 4638,
    "8.": 4639,
    "lange": 4640,
    "▁vitesse": 4641,
    "▁chien": 4642,
    "▁communauté": 4643,
    "expérience": 4644,
    "▁Ve": 4645,
    "▁tre": 4646,
    "ny": 4647,
    "▁investis": 4648,
    "▁2000": 4649,
    "▁certaine": 4650,
    "▁rent": 4651,
    "▁moyens": 4652,
    "AND": 4653,
    "▁Parc": 4654,
    "▁Jack": 4655,
    "IB": 4656,
    "cide": 4657,
    "orth": 4658,
    "▁Nom": 4659,
    "ège": 4660,
    "▁ajou": 4661,
    "87": 4662,
    "▁pourra": 4663,
    "▁nour": 4664,
    "▁nouvel": 4665,
    "▁logement": 4666,
    "play": 4667,
    "Af": 4668,
    "cts": 4669,
    "▁découverte": 4670,
    "▁Collection": 4671,
    "hiver": 4672,
    "▁particuliers": 4673,
    "ouche": 4674,
    "▁Ros": 4675,
    "▁Produits": 4676,
    "▁franc": 4677,
    "ends": 4678,
    "▁sang": 4679,
    "▁circul": 4680,
    "▁Bour": 4681,
    "▁Sex": 4682,
    "▁Avant": 4683,
    "▁York": 4684,
    "▁UN": 4685,
    "Ass": 4686,
    "▁portable": 4687,
    "▁pois": 4688,
    "▁satisf": 4689,
    "▁tal": 4690,
    "64": 4691,
    "▁lac": 4692,
    "olé": 4693,
    "▁langue": 4694,
    "▁arrê": 4695,
    "riture": 4696,
    "▁continue": 4697,
    "▁troisième": 4698,
    "▁Ligne": 4699,
    "▁therm": 4700,
    "▁ment": 4701,
    "▁0.": 4702,
    "▁explique": 4703,
    "▁44": 4704,
    "▁action": 4705,
    "▁partage": 4706,
    "▁AC": 4707,
    "BN": 4708,
    "appr": 4709,
    "▁Marc": 4710,
    "▁Run": 4711,
    "▁veux": 4712,
    "%5": 4713,
    "TT": 4714,
    "▁Louis": 4715,
    "▁européenne": 4716,
    "%3": 4717,
    "tellig": 4718,
    "ostic": 4719,
    "anges": 4720,
    "▁participer": 4721,
    "inique": 4722,
    "mn": 4723,
    "▁susp": 4724,
    "env": 4725,
    "▁Sous": 4726,
    "ustr": 4727,
    "olume": 4728,
    "adresse": 4729,
    "▁5.": 4730,
    "▁énerg": 4731,
    "lie": 4732,
    "▁physique": 4733,
    "▁Toulouse": 4734,
    "Se": 4735,
    "titut": 4736,
    "▁ordinateur": 4737,
    "▁délic": 4738,
    "▁Suisse": 4739,
    "▁connaiss": 4740,
    "▁filles": 4741,
    "▁technologie": 4742,
    "▁Pan": 4743,
    "▁Vers": 4744,
    "▁locaux": 4745,
    "▁Vert": 4746,
    "SP": 4747,
    "liqué": 4748,
    "▁SU": 4749,
    "▁forte": 4750,
    "▁glob": 4751,
    "▁crise": 4752,
    "▁poursui": 4753,
    "▁étudiants": 4754,
    "▁contempor": 4755,
    "aman": 4756,
    "▁Chaque": 4757,
    "ondes": 4758,
    "avantage": 4759,
    "can": 4760,
    "▁Cer": 4761,
    "▁One": 4762,
    "▁clair": 4763,
    "▁smart": 4764,
    "EUR": 4765,
    "▁ul": 4766,
    "ena": 4767,
    "orge": 4768,
    "▁Ra": 4769,
    "pg": 4770,
    "▁bientôt": 4771,
    "itant": 4772,
    "▁membre": 4773,
    "tuelle": 4774,
    "▁Flor": 4775,
    "▁difficul": 4776,
    "▁~": 4777,
    "69": 4778,
    "▁documents": 4779,
    "▁rig": 4780,
    "▁application": 4781,
    "▁Lab": 4782,
    "▁sorte": 4783,
    "égét": 4784,
    "sung": 4785,
    "raine": 4786,
    "▁Swe": 4787,
    "▁décoration": 4788,
    "▁43": 4789,
    "▁pieds": 4790,
    "▁Piè": 4791,
    "lip": 4792,
    "▁fleurs": 4793,
    "▁́": 4794,
    "elopp": 4795,
    "▁reçu": 4796,
    "onge": 4797,
    "▁Luc": 4798,
    "▁Mur": 4799,
    "▁soup": 4800,
    "▁pay": 4801,
    "▁lic": 4802,
    "▁Hy": 4803,
    "veille": 4804,
    "▁nord": 4805,
    "▁affir": 4806,
    "inon": 4807,
    "▁AP": 4808,
    "▁This": 4809,
    "▁4,": 4810,
    "erts": 4811,
    "▁Ind": 4812,
    "▁concurr": 4813,
    "▁politiques": 4814,
    "▁fant": 4815,
    "usion": 4816,
    "▁Ke": 4817,
    "rick": 4818,
    "opération": 4819,
    "▁collè": 4820,
    "▁Toute": 4821,
    "3-": 4822,
    "▁compt": 4823,
    "▁::": 4824,
    "▁are": 4825,
    "ulle": 4826,
    "ultes": 4827,
    "ignon": 4828,
    "idée": 4829,
    "▁Amazon": 4830,
    "▁éviter": 4831,
    "ji": 4832,
    "ouch": 4833,
    "azine": 4834,
    "▁Belle": 4835,
    "▁Montréal": 4836,
    "▁chaud": 4837,
    "▁littéra": 4838,
    "▁couv": 4839,
    "▁chan": 4840,
    "▁bac": 4841,
    "▁voici": 4842,
    "als": 4843,
    "sons": 4844,
    "▁structure": 4845,
    "▁dollars": 4846,
    "▁certain": 4847,
    "▁mécan": 4848,
    "▁œuvre": 4849,
    "▁détermin": 4850,
    "▁CE": 4851,
    "aa": 4852,
    "▁Oct": 4853,
    "▁95": 4854,
    "més": 4855,
    "sif": 4856,
    "▁péd": 4857,
    "titution": 4858,
    "▁citoy": 4859,
    "box": 4860,
    "▁retrouv": 4861,
    "▁complex": 4862,
    "retagne": 4863,
    "rog": 4864,
    "▁arrive": 4865,
    "▁acteurs": 4866,
    "▁fruits": 4867,
    "▁publics": 4868,
    "Advisor": 4869,
    "▁voyageurs": 4870,
    "▁remise": 4871,
    "OUS": 4872,
    "▁regarder": 4873,
    "▁Loire": 4874,
    "▁Santé": 4875,
    "▁More": 4876,
    "▁Bureau": 4877,
    "▁mains": 4878,
    "▁compétences": 4879,
    "Sh": 4880,
    "▁entièrement": 4881,
    "▁ME": 4882,
    "ompe": 4883,
    "▁lettre": 4884,
    "▁accep": 4885,
    "▁développer": 4886,
    "▁demander": 4887,
    "▁banc": 4888,
    "▁présenter": 4889,
    "▁coin": 4890,
    "^^": 4891,
    "▁douche": 4892,
    "84": 4893,
    "▁intérieur": 4894,
    "droid": 4895,
    "na": 4896,
    "▁lait": 4897,
    "ied": 4898,
    "▁rub": 4899,
    "▁concerne": 4900,
    "▁pourtant": 4901,
    "▁malgré": 4902,
    "▁Ref": 4903,
    "▁plomb": 4904,
    "▁ouverte": 4905,
    "▁Dernière": 4906,
    "enture": 4907,
    "ibliothèque": 4908,
    "▁cy": 4909,
    "▁Lim": 4910,
    "alys": 4911,
    "organisation": 4912,
    "inium": 4913,
    "▁City": 4914,
    "▁chocolat": 4915,
    "ssembl": 4916,
    "▁consommation": 4917,
    "▁Groupe": 4918,
    "oindre": 4919,
    "oes": 4920,
    "▁consac": 4921,
    "orisation": 4922,
    ":30": 4923,
    "▁120": 4924,
    "▁400": 4925,
    "ophie": 4926,
    "▁stars": 4927,
    "▁luxe": 4928,
    "▁Profes": 4929,
    "▁TripAdvisor": 4930,
    "▁publication": 4931,
    "estes": 4932,
    "âge": 4933,
    "▁Dos": 4934,
    "ipp": 4935,
    "▁urb": 4936,
    "▁Mante": 4937,
    "Car": 4938,
    "▁favoris": 4939,
    "huile": 4940,
    "nées": 4941,
    "▁Bur": 4942,
    "▁réalisation": 4943,
    "▁remb": 4944,
    "▁neu": 4945,
    "▁ray": 4946,
    "▁facil": 4947,
    "resser": 4948,
    "▁local": 4949,
    "▁Commer": 4950,
    "▁chiff": 4951,
    "▁Juli": 4952,
    "▁FR": 4953,
    "▁véhicules": 4954,
    "▁partout": 4955,
    "▁(...)": 4956,
    "rine": 4957,
    "quez": 4958,
    "▁maximum": 4959,
    "▁augment": 4960,
    "▁faud": 4961,
    "▁seconde": 4962,
    "▁groupes": 4963,
    "▁Sainte": 4964,
    "onal": 4965,
    "énage": 4966,
    "ouli": 4967,
    "▁International": 4968,
    "▁(2)": 4969,
    "ael": 4970,
    "Il": 4971,
    "▁demi": 4972,
    "▁élég": 4973,
    "▁entier": 4974,
    "IX": 4975,
    "▁américain": 4976,
    "ussie": 4977,
    "gy": 4978,
    "rich": 4979,
    "▁possède": 4980,
    "ander": 4981,
    "▁dix": 4982,
    "▁retrouve": 4983,
    "▁peine": 4984,
    "▁festival": 4985,
    "▁Grâce": 4986,
    "▁Brun": 4987,
    "▁Elles": 4988,
    "seurs": 4989,
    "▁réalité": 4990,
    "rench": 4991,
    "-10": 4992,
    "▁laisse": 4993,
    "info": 4994,
    "rages": 4995,
    "72": 4996,
    "LES": 4997,
    "pré": 4998,
    "tian": 4999,
    "▁Kar": 5000,
    "▁2006": 5001,
    "▁Jacques": 5002,
    "eture": 5003,
    "▁autor": 5004,
    "andic": 5005,
    "ury": 5006,
    "73": 5007,
    "▁complément": 5008,
    "ué": 5009,
    "ettres": 5010,
    "CA": 5011,
    "▁Public": 5012,
    "83": 5013,
    "▁News": 5014,
    "▁soin": 5015,
    "▁85": 5016,
    "ament": 5017,
    "▁présentation": 5018,
    "euse": 5019,
    "▁Dét": 5020,
    "/2015": 5021,
    "▁puissance": 5022,
    "▁choisi": 5023,
    "▁risques": 5024,
    "avec": 5025,
    "\">": 5026,
    "▁garantie": 5027,
    "▁mondiale": 5028,
    "▁familles": 5029,
    "▁parties": 5030,
    "▁Auc": 5031,
    "▁Wal": 5032,
    "▁finale": 5033,
    "uminium": 5034,
    "▁visiter": 5035,
    "▁dessus": 5036,
    "times": 5037,
    "▁constat": 5038,
    "▁May": 5039,
    "▁Vidé": 5040,
    "annage": 5041,
    "▁Her": 5042,
    "▁Archives": 5043,
    "▁Sar": 5044,
    "▁faisant": 5045,
    "tienne": 5046,
    "cre": 5047,
    "▁montant": 5048,
    "Ou": 5049,
    "ORT": 5050,
    "▁ital": 5051,
    "▁fera": 5052,
    "▁Lin": 5053,
    "▁fisc": 5054,
    "▁dirige": 5055,
    "▁coton": 5056,
    "▁entraî": 5057,
    "▁budget": 5058,
    "▁Réser": 5059,
    "▁allez": 5060,
    "▁utilise": 5061,
    "▁Nice": 5062,
    "▁solid": 5063,
    "▁organ": 5064,
    "truction": 5065,
    "▁Festival": 5066,
    "▁Thé": 5067,
    "ocation": 5068,
    "▁principal": 5069,
    "▁assure": 5070,
    "▁premières": 5071,
    "▁privé": 5072,
    "▁sortir": 5073,
    "ario": 5074,
    "▁Chaise": 5075,
    "▁Premier": 5076,
    "enfant": 5077,
    "dire": 5078,
    "roche": 5079,
    "onné": 5080,
    "▁Sacs": 5081,
    "▁lorsqu": 5082,
    "ban": 5083,
    "▁}": 5084,
    "▁tarifs": 5085,
    "▁Retour": 5086,
    "isl": 5087,
    "▁robe": 5088,
    "▁calcul": 5089,
    "▁étrang": 5090,
    "assin": 5091,
    "▁Vill": 5092,
    "▁spectacle": 5093,
    ".000": 5094,
    "étude": 5095,
    "94": 5096,
    "▁White": 5097,
    "cou": 5098,
    "▁offrir": 5099,
    "érée": 5100,
    "▁stat": 5101,
    "dessus": 5102,
    "▁céré": 5103,
    ".)": 5104,
    "identi": 5105,
    "▁danger": 5106,
    "▁Style": 5107,
    "▁mémoire": 5108,
    "icros": 5109,
    "▁fémin": 5110,
    "gal": 5111,
    "avis": 5112,
    "▁parking": 5113,
    "▁goût": 5114,
    "▁Basket": 5115,
    "installation": 5116,
    "!!!": 5117,
    "▁entrée": 5118,
    "émie": 5119,
    "▁nation": 5120,
    "ennis": 5121,
    "jectifs": 5122,
    "▁2017,": 5123,
    "▁réflex": 5124,
    "▁règles": 5125,
    "92": 5126,
    "ling": 5127,
    "▁fonctionnement": 5128,
    "▁gross": 5129,
    "▁bless": 5130,
    "▁Ev": 5131,
    "rement": 5132,
    "▁Lang": 5133,
    "▁durable": 5134,
    "▁pierre": 5135,
    "▁puisque": 5136,
    "omas": 5137,
    "-5": 5138,
    "▁Autom": 5139,
    "▁somme": 5140,
    "▁téléph": 5141,
    "ding": 5142,
    "EP": 5143,
    "ami": 5144,
    "onte": 5145,
    "▁Gratuit": 5146,
    "uile": 5147,
    "ministration": 5148,
    "alistes": 5149,
    "aleurs": 5150,
    "▁Sneak": 5151,
    "\",\"": 5152,
    "treet": 5153,
    "esprit": 5154,
    "▁Bonne": 5155,
    "timis": 5156,
    "île": 5157,
    "Aut": 5158,
    "▁profil": 5159,
    "écran": 5160,
    "pin": 5161,
    "▁fabri": 5162,
    "▁Livraison": 5163,
    "oureux": 5164,
    "▁46": 5165,
    "▁appréci": 5166,
    "▁Elect": 5167,
    "▁réduction": 5168,
    "oriz": 5169,
    "-2": 5170,
    "esti": 5171,
    "8,": 5172,
    "▁abord": 5173,
    "▁Marine": 5174,
    "▁serr": 5175,
    "URE": 5176,
    "▁performance": 5177,
    "▁Emm": 5178,
    "bec": 5179,
    "▁études": 5180,
    "▁del": 5181,
    "▁ferme": 5182,
    "▁bru": 5183,
    "importe": 5184,
    "▁batterie": 5185,
    "opping": 5186,
    "▁Tor": 5187,
    "▁5,": 5188,
    "▁gratuits": 5189,
    "oitation": 5190,
    "▁ancien": 5191,
    "▁restaurants": 5192,
    "trême": 5193,
    "▁BL": 5194,
    "▁Faire": 5195,
    "▁Japon": 5196,
    "ita": 5197,
    "▁Mul": 5198,
    "ba": 5199,
    "▁caract": 5200,
    "▁privée": 5201,
    "▁visage": 5202,
    "dier": 5203,
    "uxelles": 5204,
    "▁relig": 5205,
    "enez": 5206,
    "▁art": 5207,
    "▁endroit": 5208,
    "icien": 5209,
    "érant": 5210,
    "▁mul": 5211,
    "uelles": 5212,
    "ERS": 5213,
    "▁opération": 5214,
    "ild": 5215,
    "▁faute": 5216,
    "▁clés": 5217,
    "▁objectif": 5218,
    "médi": 5219,
    "évelopp": 5220,
    "▁bonheur": 5221,
    "▁Dec": 5222,
    "tig": 5223,
    "amen": 5224,
    "agog": 5225,
    "3%": 5226,
    "▁roul": 5227,
    "▁bâtiment": 5228,
    "▁Vendre": 5229,
    "ep": 5230,
    "▁référ": 5231,
    "iciels": 5232,
    "▁Mot": 5233,
    "▁cur": 5234,
    "▁importante": 5235,
    "▁créé": 5236,
    "▁vend": 5237,
    "▁consulter": 5238,
    "71": 5239,
    "établissement": 5240,
    "App": 5241,
    "▁LED": 5242,
    "▁écran": 5243,
    "▁Van": 5244,
    "liquez": 5245,
    "ator": 5246,
    "illy": 5247,
    "▁répar": 5248,
    "pas": 5249,
    "cia": 5250,
    "▁historique": 5251,
    "ics": 5252,
    "étro": 5253,
    "Plus": 5254,
    "onneur": 5255,
    "▁inten": 5256,
    "▁Pi": 5257,
    "lish": 5258,
    "▁RD": 5259,
    "▁faite": 5260,
    "▁liés": 5261,
    "▁original": 5262,
    "▁réel": 5263,
    "▁dessin": 5264,
    "▁cell": 5265,
    "▁liens": 5266,
    "▁int": 5267,
    "avez": 5268,
    "itude": 5269,
    "▁Services": 5270,
    "▁vent": 5271,
    "pre": 5272,
    "ush": 5273,
    "endance": 5274,
    "▁faible": 5275,
    "▁Gab": 5276,
    "▁vêtements": 5277,
    "lite": 5278,
    "andre": 5279,
    "èrent": 5280,
    "▁Culture": 5281,
    "onique": 5282,
    "ato": 5283,
    "▁résidence": 5284,
    "▁lyc": 5285,
    "▁préparation": 5286,
    "▁indis": 5287,
    "▁250": 5288,
    "▁lance": 5289,
    "▁Four": 5290,
    "▁el": 5291,
    "▁Syn": 5292,
    "ceau": 5293,
    "▁Inn": 5294,
    "▁similaires": 5295,
    "quin": 5296,
    "▁POUR": 5297,
    "agée": 5298,
    "urgence": 5299,
    "▁sembl": 5300,
    "▁pression": 5301,
    "▁Informations": 5302,
    "▁Ul": 5303,
    "▁fleur": 5304,
    "assurance": 5305,
    "▁minimum": 5306,
    "▁câ": 5307,
    "▁adop": 5308,
    "▁située": 5309,
    "▁Out": 5310,
    "▁connaissance": 5311,
    "istique": 5312,
    "▁médic": 5313,
    "▁panier": 5314,
    "▁végét": 5315,
    "▁Cert": 5316,
    "▁salles": 5317,
    "▁download": 5318,
    "tible": 5319,
    "hône": 5320,
    "arc": 5321,
    "▁Afrique": 5322,
    "▁Ray": 5323,
    "nels": 5324,
    "▁reç": 5325,
    "▁DVD": 5326,
    "▁Jou": 5327,
    "berg": 5328,
    "▁Pantalon": 5329,
    "▁tableau": 5330,
    "actions": 5331,
    "gue": 5332,
    "▁Mme": 5333,
    "▁essenti": 5334,
    "▁imag": 5335,
    "utiliser": 5336,
    "MP": 5337,
    "▁Maur": 5338,
    "rap": 5339,
    "▁obser": 5340,
    "celet": 5341,
    "FA": 5342,
    "▁Cop": 5343,
    "itecture": 5344,
    ".00": 5345,
    "▁trou": 5346,
    "MS": 5347,
    "▁argent": 5348,
    "ataire": 5349,
    "▁maladie": 5350,
    "sc": 5351,
    "▁Présent": 5352,
    "▁Lot": 5353,
    "▁Cos": 5354,
    "agram": 5355,
    "rans": 5356,
    "▁Ses": 5357,
    "▁Cy": 5358,
    "cipe": 5359,
    "▁prépar": 5360,
    "▁fabrication": 5361,
    "▁Sav": 5362,
    "olation": 5363,
    "▁2005": 5364,
    "ophe": 5365,
    "91": 5366,
    "▁renouv": 5367,
    "▁réponses": 5368,
    "▁Android": 5369,
    "▁identif": 5370,
    "▁attention": 5371,
    "▁Twitter": 5372,
    "gramm": 5373,
    "▁fournisseurs": 5374,
    "php": 5375,
    "▁Consul": 5376,
    "jpg": 5377,
    "lève": 5378,
    "çant": 5379,
    "vité": 5380,
    "rin": 5381,
    "▁Nav": 5382,
    "▁cul": 5383,
    "uits": 5384,
    "▁ang": 5385,
    "hér": 5386,
    "▁lesqu": 5387,
    "objet": 5388,
    "chette": 5389,
    "ext": 5390,
    "agence": 5391,
    "▁passionn": 5392,
    "▁rand": 5393,
    "▁juri": 5394,
    "▁relations": 5395,
    "▁Laurent": 5396,
    "▁Retr": 5397,
    "▁chaleur": 5398,
    "roniques": 5399,
    "▁Mars": 5400,
    "82": 5401,
    "▁41": 5402,
    "yg": 5403,
    "ala": 5404,
    "▁mu": 5405,
    "▁Apple": 5406,
    "▁Numéro": 5407,
    "▁médias": 5408,
    "▁2018,": 5409,
    "êtement": 5410,
    "▁boîte": 5411,
    "▁chaîne": 5412,
    "▁conférence": 5413,
    "▁instru": 5414,
    "▁boule": 5415,
    "▁perdu": 5416,
    "areil": 5417,
    "▁orient": 5418,
    "cial": 5419,
    "▁affaires": 5420,
    "▁pouvons": 5421,
    "▁quanti": 5422,
    "évolution": 5423,
    "▁condition": 5424,
    "EST": 5425,
    "▁fiche": 5426,
    "ouf": 5427,
    "▁ryth": 5428,
    "ésie": 5429,
    "▁défense": 5430,
    "▁bénéficier": 5431,
    "▁peur": 5432,
    "▁Sports": 5433,
    "▁Cit": 5434,
    "▁méd": 5435,
    "▁Sem": 5436,
    "▁métier": 5437,
    "▁SUR": 5438,
    "▁ski": 5439,
    "▁scolaire": 5440,
    "▁rele": 5441,
    "andis": 5442,
    "▁pne": 5443,
    "abs": 5444,
    "▁crédit": 5445,
    "▁vols": 5446,
    "▁apporter": 5447,
    "▁recettes": 5448,
    "orges": 5449,
    "▁Guide": 5450,
    "lemand": 5451,
    "rs": 5452,
    "êtres": 5453,
    "tié": 5454,
    "andicap": 5455,
    "ffe": 5456,
    "▁tenue": 5457,
    "▁naissance": 5458,
    "▁systèmes": 5459,
    "ookies": 5460,
    "▁Marron": 5461,
    "right": 5462,
    "ottes": 5463,
    "pers": 5464,
    "gar": 5465,
    "▁compter": 5466,
    "▁voie": 5467,
    "unité": 5468,
    "ness": 5469,
    "▁touche": 5470,
    "▁qualif": 5471,
    "FP": 5472,
    "▁em": 5473,
    "▁tissu": 5474,
    "▁Sau": 5475,
    "▁combat": 5476,
    "▁communes": 5477,
    "93": 5478,
    "▁Tele": 5479,
    "▁intég": 5480,
    "Qu": 5481,
    "▁eB": 5482,
    "▁participation": 5483,
    "▁Vict": 5484,
    "▁justice": 5485,
    "ical": 5486,
    "avier": 5487,
    "ty": 5488,
    "▁end": 5489,
    "/2013": 5490,
    "▁Histoire": 5491,
    "▁remer": 5492,
    "▁telles": 5493,
    "▁messages": 5494,
    "▁Tim": 5495,
    "▁agence": 5496,
    "▁poser": 5497,
    "▁carrière": 5498,
    "azz": 5499,
    "élect": 5500,
    "▁liqu": 5501,
    "▁sept": 5502,
    "▁Mc": 5503,
    "▁élections": 5504,
    "▁Rich": 5505,
    "▁Contactez": 5506,
    "▁garder": 5507,
    "▁USB": 5508,
    "▁ém": 5509,
    "('": 5510,
    "▁paiement": 5511,
    "63": 5512,
    "▁coiff": 5513,
    "▁crème": 5514,
    "▁rencontrer": 5515,
    "▁fou": 5516,
    "▁....": 5517,
    "▁plateforme": 5518,
    "▁baisse": 5519,
    "▁--": 5520,
    "▁hier": 5521,
    "▁derrière": 5522,
    "▁PH": 5523,
    "résente": 5524,
    "appar": 5525,
    "▁partenaire": 5526,
    "▁(4": 5527,
    "▁:)": 5528,
    "alisme": 5529,
    "ERT": 5530,
    "airage": 5531,
    "cite": 5532,
    "▁garage": 5533,
    "▁fichiers": 5534,
    "▁Arm": 5535,
    "LA": 5536,
    "▁Fam": 5537,
    "▁erre": 5538,
    "indle": 5539,
    "▁célèbre": 5540,
    "/2014": 5541,
    "▁Mise": 5542,
    "▁stratégie": 5543,
    "intérêt": 5544,
    "▁gro": 5545,
    "riel": 5546,
    "agers": 5547,
    "▁Monsieur": 5548,
    "▁travaille": 5549,
    "▁AD": 5550,
    "▁options": 5551,
    "oirs": 5552,
    "▁chale": 5553,
    "▁prati": 5554,
    "▁chauffage": 5555,
    "▁EX": 5556,
    "▁mélange": 5557,
    "ian": 5558,
    "▁propres": 5559,
    "tise": 5560,
    "▁liberté": 5561,
    "▁indiqué": 5562,
    "▁read": 5563,
    "-12": 5564,
    "07": 5565,
    "ni": 5566,
    "ols": 5567,
    "▁matériaux": 5568,
    "▁Modif": 5569,
    "▁conver": 5570,
    "▁achet": 5571,
    "▁modern": 5572,
    "shirt": 5573,
    "▁personnages": 5574,
    "▁Pra": 5575,
    "ilos": 5576,
    "▁couverture": 5577,
    "▁Er": 5578,
    "▁Vos": 5579,
    "▁ajouter": 5580,
    "▁collabor": 5581,
    "▁Président": 5582,
    "avait": 5583,
    "▁bran": 5584,
    "ricité": 5585,
    "▁internation": 5586,
    "6)": 5587,
    "▁régulièrement": 5588,
    "▁lutte": 5589,
    "px": 5590,
    "den": 5591,
    "ercice": 5592,
    "▁plastique": 5593,
    "».": 5594,
    "▁assurer": 5595,
    "▁syndic": 5596,
    "61": 5597,
    "62": 5598,
    "▁..": 5599,
    "▁vélo": 5600,
    "▁^^": 5601,
    "ump": 5602,
    "▁mand": 5603,
    "por": 5604,
    "▁Liste": 5605,
    "arrivée": 5606,
    "▁fun": 5607,
    "osse": 5608,
    "cent": 5609,
    "▁victoire": 5610,
    "▁Afficher": 5611,
    "▁totalement": 5612,
    "ANS": 5613,
    "/2012": 5614,
    "aris": 5615,
    "▁AS": 5616,
    "▁mix": 5617,
    "aisser": 5618,
    "▁arrière": 5619,
    "oncer": 5620,
    "▁Play": 5621,
    "dium": 5622,
    "▁beaux": 5623,
    "irurg": 5624,
    "▁immédiate": 5625,
    "▁information": 5626,
    "81": 5627,
    "▁kg": 5628,
    "▁déje": 5629,
    "▁étape": 5630,
    "▁futur": 5631,
    "▁hom": 5632,
    "économie": 5633,
    "▁West": 5634,
    "usse": 5635,
    "▁perd": 5636,
    "cy": 5637,
    "▁color": 5638,
    "▁Personn": 5639,
    "▁Gir": 5640,
    "▁trib": 5641,
    "▁Parti": 5642,
    "asy": 5643,
    "▁clé": 5644,
    "▁patrimoine": 5645,
    "ourner": 5646,
    "▁ISBN": 5647,
    "▁plans": 5648,
    "▁aurez": 5649,
    "▁envoy": 5650,
    "▁Original": 5651,
    "▁Ligue": 5652,
    "▁artistes": 5653,
    "▁alternative": 5654,
    "▁confortable": 5655,
    "cr": 5656,
    "▁Nantes": 5657,
    "ignements": 5658,
    "▁arm": 5659,
    "égal": 5660,
    "Esp": 5661,
    "cie": 5662,
    "▁Vin": 5663,
    "▁nécessaires": 5664,
    "▁Permalien": 5665,
    "idité": 5666,
    "siers": 5667,
    "▁Cin": 5668,
    "▁kilom": 5669,
    "entil": 5670,
    "▁Mil": 5671,
    "orama": 5672,
    "▁recherches": 5673,
    "▁officiel": 5674,
    "acie": 5675,
    "import": 5676,
    "▁Trois": 5677,
    "▁Adresse": 5678,
    "▁Place": 5679,
    "▁Norm": 5680,
    "rim": 5681,
    "▁it": 5682,
    "▁FRAN": 5683,
    "mber": 5684,
    "▁net": 5685,
    "▁journal": 5686,
    "▁Londres": 5687,
    "▁quelqu": 5688,
    "agnostic": 5689,
    "tension": 5690,
    "▁FC": 5691,
    "▁régime": 5692,
    "▁Nature": 5693,
    "chon": 5694,
    "▁Conne": 5695,
    "▁électronique": 5696,
    "améli": 5697,
    "tration": 5698,
    "▁chinois": 5699,
    "▁2016,": 5700,
    "▁Bottines": 5701,
    "▁ministère": 5702,
    "entretien": 5703,
    "cte": 5704,
    "ingt": 5705,
    "▁siège": 5706,
    "/5": 5707,
    "dom": 5708,
    "▁Chois": 5709,
    "▁Spéci": 5710,
    "▁servi": 5711,
    "▁joueur": 5712,
    "▁france": 5713,
    "▁partenariat": 5714,
    "▁audio": 5715,
    ",...": 5716,
    "▁Bes": 5717,
    "▁u": 5718,
    "angé": 5719,
    "▁présenté": 5720,
    "▁Côte": 5721,
    "▁Math": 5722,
    "chets": 5723,
    "▁look": 5724,
    "▁Restaurant": 5725,
    "iteur": 5726,
    "▁précise": 5727,
    "-3": 5728,
    "ASS": 5729,
    "mande": 5730,
    "▁repro": 5731,
    "▁Sm": 5732,
    "iger": 5733,
    "IQUE": 5734,
    "▁valeurs": 5735,
    "▁//": 5736,
    "ancien": 5737,
    "▁hausse": 5738,
    "▁outre": 5739,
    "eries": 5740,
    "▁Charles": 5741,
    "▁informatique": 5742,
    "▁Accessoires": 5743,
    "▁lour": 5744,
    "aissez": 5745,
    "▁parfum": 5746,
    "▁Manches": 5747,
    "▁Book": 5748,
    "▁jaune": 5749,
    "):": 5750,
    "▁Bourg": 5751,
    "▁camping": 5752,
    "▁exist": 5753,
    "▁Univers": 5754,
    "▁Wom": 5755,
    "espère": 5756,
    "▁Argent": 5757,
    "▁Robert": 5758,
    "▁Sén": 5759,
    "▁innov": 5760,
    "▁anniversaire": 5761,
    "▁Samsung": 5762,
    "▁joue": 5763,
    "▁maîtr": 5764,
    "▁lin": 5765,
    "▁blanche": 5766,
    "impression": 5767,
    "écurité": 5768,
    "▁prim": 5769,
    "▁Net": 5770,
    "▁rendu": 5771,
    "▁Bruxelles": 5772,
    "ériques": 5773,
    "▁réception": 5774,
    "oraire": 5775,
    "▁interven": 5776,
    "▁Dés": 5777,
    "lign": 5778,
    "▁étude": 5779,
    "▁Mach": 5780,
    "nelles": 5781,
    "▁prestations": 5782,
    "▁Fit": 5783,
    "iés": 5784,
    "kin": 5785,
    "▁diam": 5786,
    "▁appareils": 5787,
    "way": 5788,
    "lets": 5789,
    "outez": 5790,
    "▁récup": 5791,
    "oite": 5792,
    "▁Immobilier": 5793,
    "stru": 5794,
    "alisée": 5795,
    "▁ran": 5796,
    "Pub": 5797,
    "▁600": 5798,
    "▁aéri": 5799,
    "tirer": 5800,
    "▁emploi": 5801,
    "▁Cra": 5802,
    "▁compati": 5803,
    "▁Aj": 5804,
    "UC": 5805,
    "▁prévu": 5806,
    "0.": 5807,
    "▁excellent": 5808,
    "ritann": 5809,
    "▁pourront": 5810,
    "▁Wiki": 5811,
    "▁AV": 5812,
    "▁courant": 5813,
    "TO": 5814,
    "arez": 5815,
    "▁acier": 5816,
    "▁Situ": 5817,
    "xt": 5818,
    "▁fall": 5819,
    "▁Même": 5820,
    "▁march": 5821,
    "▁your": 5822,
    "▁Source": 5823,
    "▁PR": 5824,
    "▁1000": 5825,
    "▁écoles": 5826,
    "lemagne": 5827,
    "▁froid": 5828,
    "▁payer": 5829,
    "ATE": 5830,
    "▁National": 5831,
    "-01": 5832,
    "ISE": 5833,
    "ams": 5834,
    "entiss": 5835,
    "▁réunion": 5836,
    "▁Terre": 5837,
    "teliers": 5838,
    "▁Chez": 5839,
    "▁Petite": 5840,
    "▁Of": 5841,
    "née": 5842,
    "▁Cours": 5843,
    "▁bag": 5844,
    "▁Formation": 5845,
    "▁pur": 5846,
    "ashion": 5847,
    "▁Park": 5848,
    "▁saint": 5849,
    "▁Orange": 5850,
    "▁coût": 5851,
    "▁Bay": 5852,
    "▁conj": 5853,
    "▁NE": 5854,
    "▁principaux": 5855,
    "heim": 5856,
    "▁dra": 5857,
    "▁Pin": 5858,
    "▁Coup": 5859,
    "▁(200": 5860,
    "▁établis": 5861,
    "▁raisons": 5862,
    "▁communiqué": 5863,
    "▁Eng": 5864,
    "▁Retrouvez": 5865,
    "fum": 5866,
    "▁[#": 5867,
    "aques": 5868,
    "▁zones": 5869,
    "▁Sep": 5870,
    "▁2019,": 5871,
    "▁star": 5872,
    "▁Cependant": 5873,
    "icrosoft": 5874,
    "▁Montre": 5875,
    "autom": 5876,
    "▁destination": 5877,
    "nés": 5878,
    "▁lignes": 5879,
    "▁illus": 5880,
    "▁voilà": 5881,
    "▁objectifs": 5882,
    "▁protéger": 5883,
    "▁applications": 5884,
    "▁basse": 5885,
    "endrier": 5886,
    "▁ant": 5887,
    "éros": 5888,
    "▁moto": 5889,
    "▁enseign": 5890,
    "▁installation": 5891,
    "▁Cong": 5892,
    "aqu": 5893,
    "▁inclus": 5894,
    "▁outil": 5895,
    "▁candidat": 5896,
    "▁deme": 5897,
    "▁den": 5898,
    "indi": 5899,
    "/2020": 5900,
    "▁box": 5901,
    "▁fournir": 5902,
    "▁contribu": 5903,
    "cemment": 5904,
    "▁over": 5905,
    "aro": 5906,
    "▁Sté": 5907,
    "▁var": 5908,
    "▁collaboration": 5909,
    "▁Kit": 5910,
    "▁Rev": 5911,
    "▁concept": 5912,
    "riculture": 5913,
    "▁Jo": 5914,
    "tle": 5915,
    "▁Donc": 5916,
    "objectif": 5917,
    "▁go": 5918,
    "Union": 5919,
    "▁événements": 5920,
    "\":\"": 5921,
    "▁pub": 5922,
    "▁formes": 5923,
    "▁température": 5924,
    "▁déli": 5925,
    "▁Lux": 5926,
    "▁riche": 5927,
    "obe": 5928,
    "▁préparer": 5929,
    "▁radio": 5930,
    "ao": 5931,
    "urent": 5932,
    "▁construc": 5933,
    "andouli": 5934,
    "meuble": 5935,
    "▁Vinc": 5936,
    "00)": 5937,
    "han": 5938,
    "Ins": 5939,
    "▁vues": 5940,
    "▁proposons": 5941,
    "adore": 5942,
    "▁64": 5943,
    "▁mail": 5944,
    "the": 5945,
    "agnes": 5946,
    "Fi": 5947,
    "▁pêche": 5948,
    "▁salariés": 5949,
    "▁suffis": 5950,
    "▁sociétés": 5951,
    "▁indispens": 5952,
    "▁généralement": 5953,
    "État": 5954,
    "amedi": 5955,
    "▁Beach": 5956,
    "▁utile": 5957,
    "▁affich": 5958,
    "▁biens": 5959,
    "pellier": 5960,
    "▁serez": 5961,
    "rass": 5962,
    "aby": 5963,
    "▁Comb": 5964,
    "▁Sun": 5965,
    "▁exc": 5966,
    "dans": 5967,
    "▁Edition": 5968,
    "▁Répondre": 5969,
    "ko": 5970,
    "▁don": 5971,
    "▁Poli": 5972,
    "▁‘": 5973,
    "enses": 5974,
    "▁vig": 5975,
    "▁Resp": 5976,
    "▁laiss": 5977,
    "▁féd": 5978,
    "▁espaces": 5979,
    "PL": 5980,
    "▁responsabilité": 5981,
    "▁carb": 5982,
    "Is": 5983,
    "▁AB": 5984,
    "▁méthode": 5985,
    "ED": 5986,
    "▁chap": 5987,
    "▁composé": 5988,
    "chetez": 5989,
    "Fran": 5990,
    "▁Rock": 5991,
    "▁dû": 5992,
    "CS": 5993,
    "▁ach": 5994,
    "▁contrô": 5995,
    "Université": 5996,
    "▁marketing": 5997,
    "▁Hen": 5998,
    "▁effets": 5999,
    "ponible": 6000,
    "ico": 6001,
    "▁internautes": 6002,
    "▁réduire": 6003,
    "▁télévision": 6004,
    "osph": 6005,
    "▁football": 6006,
    "▁gre": 6007,
    "▁démocra": 6008,
    "05": 6009,
    "▁contraire": 6010,
    "▁Provence": 6011,
    "▁mention": 6012,
    "ouc": 6013,
    "▁visiteurs": 6014,
    "▁améliorer": 6015,
    "▁continuer": 6016,
    "érateur": 6017,
    "▁crit": 6018,
    "▁requ": 6019,
    "▁Meilleur": 6020,
    "pedia": 6021,
    "main": 6022,
    "▁quant": 6023,
    "▁favor": 6024,
    "▁symb": 6025,
    "rome": 6026,
    "pins": 6027,
    "▁évalu": 6028,
    "atisation": 6029,
    "don": 6030,
    "▁Jeans": 6031,
    "▁Sant": 6032,
    "▁Italie": 6033,
    "asi": 6034,
    "▁Marque": 6035,
    "▁pharm": 6036,
    "▁Tex": 6037,
    "▁Free": 6038,
    "▁[#]": 6039,
    "rets": 6040,
    "gin": 6041,
    "▁roule": 6042,
    "▁Déb": 6043,
    "▁bour": 6044,
    "▁génér": 6045,
    "▁motiv": 6046,
    "tinéra": 6047,
    "éducation": 6048,
    "âche": 6049,
    "▁Lég": 6050,
    "▁avantages": 6051,
    "ua": 6052,
    "▁propriétaire": 6053,
    "▁programmes": 6054,
    "ware": 6055,
    "apes": 6056,
    "édie": 6057,
    "▁Gold": 6058,
    "▁Vintage": 6059,
    "midi": 6060,
    "acute": 6061,
    "acte": 6062,
    "▁Villa": 6063,
    "lém": 6064,
    "Nous": 6065,
    "▁section": 6066,
    "Con": 6067,
    "▁rêve": 6068,
    "Pierre": 6069,
    "▁Fi": 6070,
    "▁47": 6071,
    "▁indépend": 6072,
    "▁Nombre": 6073,
    "▁Château": 6074,
    "▁Développ": 6075,
    "▁Lé": 6076,
    "▁os": 6077,
    "▁sor": 6078,
    "▁évent": 6079,
    "Afrique": 6080,
    "▁mens": 6081,
    "▁49": 6082,
    "▁reb": 6083,
    "▁Ham": 6084,
    "▁Eff": 6085,
    "▁Us": 6086,
    "▁CR": 6087,
    "▁sujets": 6088,
    "▁finalement": 6089,
    "▁terr": 6090,
    "The": 6091,
    "anda": 6092,
    "▁lancé": 6093,
    "▁japon": 6094,
    "▁Mos": 6095,
    "work": 6096,
    "andoulière": 6097,
    "▁cart": 6098,
    "Pour": 6099,
    "▁Voyage": 6100,
    "visions": 6101,
    "▁fonctionne": 6102,
    "▁dr": 6103,
    "▁Région": 6104,
    "▁représente": 6105,
    "ody": 6106,
    "▁accueil": 6107,
    "gramme": 6108,
    "▁Ah": 6109,
    "▁jeunesse": 6110,
    "▁QU": 6111,
    "▁Mel": 6112,
    "industrie": 6113,
    "▁lancer": 6114,
    "itaine": 6115,
    "neur": 6116,
    "utri": 6117,
    "▁Seu": 6118,
    "▁Boutique": 6119,
    "accomp": 6120,
    "▁concent": 6121,
    "▁fid": 6122,
    "▁CAR": 6123,
    "kea": 6124,
    "ago": 6125,
    "▁exig": 6126,
    "esses": 6127,
    "uper": 6128,
    "▁principale": 6129,
    "▁Éc": 6130,
    "▁tellement": 6131,
    "tilis": 6132,
    "▁printemps": 6133,
    "▁cependant": 6134,
    "CHE": 6135,
    "▁équipée": 6136,
    "▁nettoyage": 6137,
    "▁passion": 6138,
    "▁fe": 6139,
    "▁ajouté": 6140,
    "ressionn": 6141,
    "▁sucre": 6142,
    "veurs": 6143,
    "▁moments": 6144,
    "tenance": 6145,
    "▁Maisons": 6146,
    "environ": 6147,
    "urier": 6148,
    "outh": 6149,
    "▁apprendre": 6150,
    "TA": 6151,
    "▁ultra": 6152,
    "ionnat": 6153,
    "▁titres": 6154,
    "▁tourisme": 6155,
    "▁Premium": 6156,
    "enz": 6157,
    "▁joli": 6158,
    "ife": 6159,
    "▁EU": 6160,
    "▁enj": 6161,
    "inement": 6162,
    "▁profonde": 6163,
    "ield": 6164,
    "ducteur": 6165,
    "▁Thomas": 6166,
    "diteur": 6167,
    "▁marchés": 6168,
    "▁utilisation": 6169,
    "▁sépar": 6170,
    "itent": 6171,
    "▁fenêtre": 6172,
    "▁good": 6173,
    "▁afric": 6174,
    "résil": 6175,
    "ags": 6176,
    "duct": 6177,
    "▁Aub": 6178,
    "ébergement": 6179,
    "▁Posted": 6180,
    "▁mondial": 6181,
    "▁établissement": 6182,
    "my": 6183,
    "▁Bretagne": 6184,
    "▁populaire": 6185,
    "▁Tunis": 6186,
    "▁Poser": 6187,
    "hors": 6188,
    "actualité": 6189,
    "▁2015,": 6190,
    "her": 6191,
    "blog": 6192,
    "èce": 6193,
    "pris": 6194,
    "ceaux": 6195,
    "ject": 6196,
    "érité": 6197,
    "▁Enfant": 6198,
    "▁chiffre": 6199,
    "▁témoign": 6200,
    "asc": 6201,
    "▁refus": 6202,
    "axy": 6203,
    "tec": 6204,
    "▁Vit": 6205,
    "▁extérieur": 6206,
    "▁spécialiste": 6207,
    "▁Trouvez": 6208,
    "SA": 6209,
    "ômes": 6210,
    "▁Gren": 6211,
    "Des": 6212,
    "▁proposé": 6213,
    "▁195": 6214,
    "▁vision": 6215,
    "▁Résultats": 6216,
    "▁gour": 6217,
    "▁étage": 6218,
    "ouvertes": 6219,
    "▁Entreprise": 6220,
    "olo": 6221,
    "OY": 6222,
    "▁Tom": 6223,
    "▁doux": 6224,
    "▁adapté": 6225,
    "▁appareil": 6226,
    "ION": 6227,
    "▁ball": 6228,
    "OIR": 6229,
    "▁Font": 6230,
    "ju": 6231,
    "▁Doc": 6232,
    "▁alli": 6233,
    "▁contient": 6234,
    "▁Auto": 6235,
    "▁Seine": 6236,
    "▁Blu": 6237,
    "▁demain": 6238,
    "▁sent": 6239,
    "▁transpar": 6240,
    "▁far": 6241,
    "▁Lorsque": 6242,
    "▁diverses": 6243,
    "▁Pic": 6244,
    "▁privil": 6245,
    "oly": 6246,
    "aga": 6247,
    "▁penser": 6248,
    "▁bilan": 6249,
    "▁superbe": 6250,
    "▁perte": 6251,
    "▁pédagog": 6252,
    "▁cru": 6253,
    "EC": 6254,
    "iciens": 6255,
    "unal": 6256,
    "▁Cad": 6257,
    "▁Gestion": 6258,
    "ureaux": 6259,
    "▁heureux": 6260,
    "▁mg": 6261,
    "▁loisirs": 6262,
    "ocat": 6263,
    "rond": 6264,
    "▁somm": 6265,
    "▁Tre": 6266,
    "▁handicap": 6267,
    "▁technologies": 6268,
    "ône": 6269,
    "ublic": 6270,
    "▁Fe": 6271,
    "▁claire": 6272,
    "▁const": 6273,
    "qw": 6274,
    "ection": 6275,
    "▁milliers": 6276,
    "Ne": 6277,
    "▁Médi": 6278,
    "▁Lille": 6279,
    "▁plantes": 6280,
    "agnement": 6281,
    "anuel": 6282,
    "prun": 6283,
    "▁opp": 6284,
    "rab": 6285,
    "ectu": 6286,
    "▁bras": 6287,
    "▁essay": 6288,
    "▁présidentielle": 6289,
    "▁centrale": 6290,
    "▁Bu": 6291,
    "▁bu": 6292,
    "▁6.": 6293,
    "▁quit": 6294,
    "▁capitale": 6295,
    "écl": 6296,
    "Est": 6297,
    "étais": 6298,
    "▁ciel": 6299,
    "▁américaine": 6300,
    "extérieur": 6301,
    "▁6,": 6302,
    "▁supérieur": 6303,
    "urant": 6304,
    "▁niveaux": 6305,
    "any": 6306,
    "▁dynamique": 6307,
    "ELLE": 6308,
    "].": 6309,
    "▁prê": 6310,
    "▁pron": 6311,
    "▁Cli": 6312,
    "▁bo": 6313,
    "▁Fré": 6314,
    "▁Allemagne": 6315,
    "▁Hum": 6316,
    "▁Aqu": 6317,
    "▁54": 6318,
    "▁Chap": 6319,
    "........": 6320,
    "allen": 6321,
    "ouvrir": 6322,
    "▁expri": 6323,
    "▁artisan": 6324,
    "intes": 6325,
    "gée": 6326,
    "▁assurance": 6327,
    "avenir": 6328,
    "▁provo": 6329,
    "▁cliquez": 6330,
    "▁we": 6331,
    "outer": 6332,
    "▁(10": 6333,
    "ricole": 6334,
    "▁sty": 6335,
    "din": 6336,
    "▁lettres": 6337,
    "▁déjeuner": 6338,
    "▁Py": 6339,
    "▁Dess": 6340,
    "évé": 6341,
    "▁commencé": 6342,
    "▁indic": 6343,
    "▁utilisant": 6344,
    "▁Moy": 6345,
    "▁Pu": 6346,
    "veillance": 6347,
    "▁Pont": 6348,
    "▁Bernard": 6349,
    "▁black": 6350,
    "▁Asi": 6351,
    "▁populaires": 6352,
    "▁233": 6353,
    "cool": 6354,
    "onyme": 6355,
    "▁théâtre": 6356,
    "▁FOR": 6357,
    "aéroport": 6358,
    "▁Radio": 6359,
    "▁caractère": 6360,
    "▁Beige": 6361,
    "▁tele": 6362,
    "▁mêmes": 6363,
    "▁arriver": 6364,
    "▁Vacances": 6365,
    "▁XV": 6366,
    "ére": 6367,
    "▁émo": 6368,
    "▁faits": 6369,
    "quées": 6370,
    "▁déco": 6371,
    "ographique": 6372,
    "▁massi": 6373,
    "▁jolie": 6374,
    "dies": 6375,
    "▁pel": 6376,
    "▁Mots": 6377,
    "ium": 6378,
    "▁chercher": 6379,
    "▁Titre": 6380,
    "▁montagne": 6381,
    "érale": 6382,
    "▁Faites": 6383,
    "▁Note": 6384,
    "▁last": 6385,
    "▁neige": 6386,
    "▁CN": 6387,
    "▁graphique": 6388,
    "tiens": 6389,
    "▁longues": 6390,
    "cipl": 6391,
    "▁majorité": 6392,
    "▁limite": 6393,
    "▁dispositif": 6394,
    "tisme": 6395,
    "▁transf": 6396,
    "igu": 6397,
    "▁législ": 6398,
    "gés": 6399,
    "▁van": 6400,
    "ause": 6401,
    "▁fonctions": 6402,
    "▁Bout": 6403,
    "▁Musée": 6404,
    "▁personnage": 6405,
    "▁contexte": 6406,
    "▁Post": 6407,
    "▁sel": 6408,
    "▁volume": 6409,
    "ovation": 6410,
    "vince": 6411,
    "▁viens": 6412,
    "▁Spe": 6413,
    "▁noire": 6414,
    "END": 6415,
    "▁cach": 6416,
    "▁conseiller": 6417,
    "cis": 6418,
    "▁desc": 6419,
    "▁menu": 6420,
    "▁7,": 6421,
    "▁programm": 6422,
    "▁équipements": 6423,
    "aure": 6424,
    "aitre": 6425,
    "aissent": 6426,
    "aki": 6427,
    "▁locale": 6428,
    "▁World": 6429,
    "▁manches": 6430,
    "▁Moi": 6431,
    "▁classement": 6432,
    "entissage": 6433,
    "▁récemment": 6434,
    "irus": 6435,
    "▁vote": 6436,
    "CD": 6437,
    "▁Alain": 6438,
    "▁avanc": 6439,
    "▁réuss": 6440,
    "videmment": 6441,
    "-4": 6442,
    "▁Multi": 6443,
    "resses": 6444,
    "▁conseill": 6445,
    "GER": 6446,
    "▁davantage": 6447,
    "▁européen": 6448,
    "▁demandé": 6449,
    "iant": 6450,
    "▁tab": 6451,
    "MM": 6452,
    "atelas": 6453,
    "olore": 6454,
    "▁passant": 6455,
    "inés": 6456,
    "▁volonté": 6457,
    "lant": 6458,
    "''": 6459,
    "▁that": 6460,
    "▁gérer": 6461,
    "chent": 6462,
    "eck": 6463,
    "▁totale": 6464,
    "▁Aux": 6465,
    "▁tandis": 6466,
    "▁financement": 6467,
    "▁perdre": 6468,
    "▁final": 6469,
    "▁connexion": 6470,
    "▁différence": 6471,
    "là": 6472,
    "▁téléchargement": 6473,
    "mage": 6474,
    "CL": 6475,
    "▁rénovation": 6476,
    "▁now": 6477,
    "rient": 6478,
    "▁termes": 6479,
    "▁célé": 6480,
    "▁lumin": 6481,
    "union": 6482,
    "ussion": 6483,
    "-11": 6484,
    "▁regr": 6485,
    "▁MP": 6486,
    "uf": 6487,
    "érapie": 6488,
    "lor": 6489,
    "▁chim": 6490,
    "▁événement": 6491,
    "▁56": 6492,
    "▁Green": 6493,
    "▁Poin": 6494,
    "▁180": 6495,
    "▁candidats": 6496,
    "iennes": 6497,
    "▁(9": 6498,
    "▁max": 6499,
    "ALE": 6500,
    "▁(0)": 6501,
    "▁Rap": 6502,
    "▁bloc": 6503,
    "▁Magn": 6504,
    "allée": 6505,
    "▁Viv": 6506,
    "▁tor": 6507,
    "exploitation": 6508,
    "▁école": 6509,
    "▁cookies": 6510,
    "nez": 6511,
    "afond": 6512,
    "▁Ensemble": 6513,
    "▁chiffres": 6514,
    "▁Parfum": 6515,
    "▁7.": 6516,
    "ductions": 6517,
    "▁séance": 6518,
    "▁simples": 6519,
    "rétaire": 6520,
    "▁up": 6521,
    "▁Ouv": 6522,
    "▁BR": 6523,
    "▁scén": 6524,
    "▁billets": 6525,
    "▁retraite": 6526,
    "▁Dém": 6527,
    "▁Manteau": 6528,
    "▁locations": 6529,
    "▁visites": 6530,
    "▁class": 6531,
    "▁Angel": 6532,
    "aco": 6533,
    "iale": 6534,
    "▁Signaler": 6535,
    "▁toile": 6536,
    "▁paix": 6537,
    "riez": 6538,
    "long": 6539,
    "▁Tél": 6540,
    "▁studio": 6541,
    "Bas": 6542,
    "aimer": 6543,
    "▁pin": 6544,
    "Et": 6545,
    "itations": 6546,
    "▁vieux": 6547,
    "relage": 6548,
    "▁montrer": 6549,
    "▁accessible": 6550,
    "▁bouton": 6551,
    "▁noter": 6552,
    "ermé": 6553,
    "andie": 6554,
    "▁connaissances": 6555,
    "▁miroir": 6556,
    "▁légumes": 6557,
    "▁notes": 6558,
    "▁voyages": 6559,
    "▁ml": 6560,
    "▁voi": 6561,
    "formes": 6562,
    "▁Neu": 6563,
    "▁villa": 6564,
    "▁supplémentaires": 6565,
    "och": 6566,
    "▁roy": 6567,
    "▁fréqu": 6568,
    "now": 6569,
    "ords": 6570,
    "tation": 6571,
    "▁forces": 6572,
    "▁bijoux": 6573,
    "ae": 6574,
    "UX": 6575,
    "énom": 6576,
    "analyse": 6577,
    "univers": 6578,
    "▁distribution": 6579,
    "▁CA": 6580,
    "▁servir": 6581,
    "ily": 6582,
    "▁Streaming": 6583,
    "Lire": 6584,
    "élection": 6585,
    "▁diz": 6586,
    "▁cu": 6587,
    "▁Stéph": 6588,
    "OX": 6589,
    "oco": 6590,
    "▁entretien": 6591,
    "▁Qualité": 6592,
    "illé": 6593,
    "▁condam": 6594,
    "▁tenu": 6595,
    "terre": 6596,
    "wq": 6597,
    "▁Puma": 6598,
    "▁danse": 6599,
    "▁140": 6600,
    "érés": 6601,
    "Vous": 6602,
    "glise": 6603,
    "▁complé": 6604,
    "administration": 6605,
    "aid": 6606,
    "▁synth": 6607,
    "▁kmHôtels": 6608,
    "▁textes": 6609,
    "▁aid": 6610,
    "▁Montpellier": 6611,
    "54": 6612,
    "try": 6613,
    "mas": 6614,
    "UT": 6615,
    "▁inves": 6616,
    "▁config": 6617,
    "▁option": 6618,
    "▁Fant": 6619,
    "atoires": 6620,
    "▁évolu": 6621,
    "po": 6622,
    "▁cabinet": 6623,
    "▁Mariage": 6624,
    "▁59": 6625,
    "▁débat": 6626,
    "illant": 6627,
    "▁médecin": 6628,
    "▁doc": 6629,
    "▁poign": 6630,
    "▁Message": 6631,
    "________": 6632,
    "▁horaires": 6633,
    "▁chasse": 6634,
    "▁chant": 6635,
    "ourir": 6636,
    "▁plats": 6637,
    "▁supérieure": 6638,
    "▁aspect": 6639,
    "▁Samedi": 6640,
    "honneur": 6641,
    "▁adultes": 6642,
    "▁Best": 6643,
    "▁signe": 6644,
    "▁tient": 6645,
    "oue": 6646,
    "▁new": 6647,
    "▁banque": 6648,
    "▁performances": 6649,
    "angle": 6650,
    "avance": 6651,
    "▁modifier": 6652,
    "sbourg": 6653,
    "▁polici": 6654,
    "▁autorités": 6655,
    "enda": 6656,
    "tume": 6657,
    "▁Image": 6658,
    "▁surprise": 6659,
    "▁veille": 6660,
    "▁votes": 6661,
    "▁Pack": 6662,
    "▁800": 6663,
    "anes": 6664,
    "▁Luxe": 6665,
    "▁lunettes": 6666,
    "▁52": 6667,
    "AINT": 6668,
    "▁Emploi": 6669,
    "https": 6670,
    "▁Conf": 6671,
    "▁phase": 6672,
    "▁cadeaux": 6673,
    "▁Syl": 6674,
    "▁modification": 6675,
    "▁view": 6676,
    "▁réserver": 6677,
    "ancier": 6678,
    "▁Lampe": 6679,
    "▁High": 6680,
    "▁Microsoft": 6681,
    "intern": 6682,
    "▁Quelques": 6683,
    "▁PE": 6684,
    "▁Occ": 6685,
    "▁billet": 6686,
    "érable": 6687,
    "PA": 6688,
    "300": 6689,
    "▁Quelle": 6690,
    "02": 6691,
    "▁principe": 6692,
    "arme": 6693,
    "▁logiciels": 6694,
    "▁Sorti": 6695,
    "▁trés": 6696,
    "▁faudra": 6697,
    "époque": 6698,
    "investis": 6699,
    "▁toit": 6700,
    "▁Etu": 6701,
    "▁longueur": 6702,
    "met": 6703,
    "images": 6704,
    "▁Sneakers": 6705,
    "▁elect": 6706,
    "▁associations": 6707,
    "dients": 6708,
    "▁Jul": 6709,
    "▁telle": 6710,
    "▁demandes": 6711,
    "▁Présentation": 6712,
    "▁esc": 6713,
    "▁Afin": 6714,
    "entraî": 6715,
    "▁baign": 6716,
    "▁devenu": 6717,
    "▁Russie": 6718,
    "▁merveille": 6719,
    "▁Promo": 6720,
    "▁2014,": 6721,
    "▁TVA": 6722,
    "▁Christian": 6723,
    "▁déroul": 6724,
    ":10": 6725,
    "▁rond": 6726,
    "CC": 6727,
    "key": 6728,
    "▁BE": 6729,
    "Pos": 6730,
    "▁parfaite": 6731,
    "▁Né": 6732,
    "▁participants": 6733,
    "▁musée": 6734,
    "ival": 6735,
    "▁smartphone": 6736,
    "▁formations": 6737,
    "At": 6738,
    "▁Inc": 6739,
    ":15": 6740,
    "rol": 6741,
    "olument": 6742,
    "Alpes": 6743,
    "ington": 6744,
    "▁logements": 6745,
    "fa": 6746,
    "céd": 6747,
    "ally": 6748,
    "▁vaut": 6749,
    "▁réservation": 6750,
    "Te": 6751,
    "rég": 6752,
    "▁construire": 6753,
    "▁stress": 6754,
    "▁amour": 6755,
    "▁Basses": 6756,
    "▁SN": 6757,
    "heureusement": 6758,
    "ited": 6759,
    "AUX": 6760,
    "PR": 6761,
    "▁VI": 6762,
    "▁naturelle": 6763,
    "plus": 6764,
    "▁démarche": 6765,
    "enseignement": 6766,
    "▁domaines": 6767,
    "▁Rome": 6768,
    "arb": 6769,
    "▁gare": 6770,
    "▁comptes": 6771,
    "▁gard": 6772,
    "ella": 6773,
    "Mont": 6774,
    "▁maire": 6775,
    "astr": 6776,
    "▁Classe": 6777,
    "▁patients": 6778,
    "▁lot": 6779,
    "▁incont": 6780,
    "Bl": 6781,
    "▁capable": 6782,
    "ataires": 6783,
    "▁capital": 6784,
    "Pl": 6785,
    ":20": 6786,
    "▁XX": 6787,
    "cons": 6788,
    "gen": 6789,
    "▁fron": 6790,
    "▁Guy": 6791,
    "irant": 6792,
    "▁vérifier": 6793,
    "▁sympa": 6794,
    "▁rac": 6795,
    "▁lis": 6796,
    "aim": 6797,
    "ardins": 6798,
    "OIS": 6799,
    "▁soulign": 6800,
    "▁rejoindre": 6801,
    "initi": 6802,
    "▁sch": 6803,
    "▁Dép": 6804,
    "▁vingt": 6805,
    "▁veulent": 6806,
    "isée": 6807,
    "▁suivante": 6808,
    "▁Gros": 6809,
    "▁hotel": 6810,
    "▁Up": 6811,
    "▁Avr": 6812,
    "sign": 6813,
    "ivement": 6814,
    "gre": 6815,
    "▁pros": 6816,
    "▁Em": 6817,
    "ters": 6818,
    "▁entendu": 6819,
    "▁oublier": 6820,
    "faire": 6821,
    "apport": 6822,
    "allé": 6823,
    "▁peint": 6824,
    "▁Politique": 6825,
    "▁fournit": 6826,
    "prix": 6827,
    "tissement": 6828,
    "ligne": 6829,
    "▁optim": 6830,
    "▁SA": 6831,
    "▁Patrick": 6832,
    "▁Espagne": 6833,
    "▁enquête": 6834,
    "▁obtenu": 6835,
    "▁convient": 6836,
    "nam": 6837,
    "▁gri": 6838,
    "08": 6839,
    "oubl": 6840,
    "▁viennent": 6841,
    "MI": 6842,
    "▁pâte": 6843,
    "▁anciens": 6844,
    "xx": 6845,
    "▁établissements": 6846,
    "assins": 6847,
    "▁démont": 6848,
    "▁victimes": 6849,
    "eroy": 6850,
    "▁Ur": 6851,
    "arre": 6852,
    "alph": 6853,
    "▁revenir": 6854,
    "ALL": 6855,
    "▁Suite": 6856,
    "OV": 6857,
    "▁Chambres": 6858,
    "▁organisé": 6859,
    "▁Mand": 6860,
    "▁essayer": 6861,
    "oble": 6862,
    "ench": 6863,
    "▁toutefois": 6864,
    "gérie": 6865,
    "lit": 6866,
    "▁allons": 6867,
    "gues": 6868,
    "▁prises": 6869,
    "onnées": 6870,
    "orie": 6871,
    "▁aler": 6872,
    "sol": 6873,
    "▁kilomètres": 6874,
    "exposition": 6875,
    "aval": 6876,
    "▁Déf": 6877,
    "érir": 6878,
    "▁Wi": 6879,
    "▁préser": 6880,
    "▁charme": 6881,
    "▁autoris": 6882,
    "▁Magas": 6883,
    "dici": 6884,
    "iège": 6885,
    "▁utiles": 6886,
    "▁complètement": 6887,
    "moins": 6888,
    "agent": 6889,
    "▁côtés": 6890,
    "▁diver": 6891,
    "CF": 6892,
    "▁Rep": 6893,
    "▁tres": 6894,
    "▁vra": 6895,
    "▁effectuer": 6896,
    "ordan": 6897,
    "▁news": 6898,
    "aule": 6899,
    "wood": 6900,
    "▁ble": 6901,
    "▁revient": 6902,
    "ouleurs": 6903,
    "sec": 6904,
    "▁Vidéo": 6905,
    "dits": 6906,
    "▁catalogue": 6907,
    "ho": 6908,
    "eto": 6909,
    "Col": 6910,
    "▁normes": 6911,
    "stème": 6912,
    "▁Royaume": 6913,
    "PDF": 6914,
    "urn": 6915,
    "▁preuve": 6916,
    "▁sit": 6917,
    "▁relative": 6918,
    "alise": 6919,
    "▁Journal": 6920,
    "rains": 6921,
    "vain": 6922,
    "▁charges": 6923,
    "▁Aucun": 6924,
    "▁Tit": 6925,
    "érapeu": 6926,
    "iler": 6927,
    "▁stage": 6928,
    "▁suivants": 6929,
    "▁fini": 6930,
    "▁trim": 6931,
    "▁Rand": 6932,
    "▁Football": 6933,
    "carpins": 6934,
    "bou": 6935,
    "ution": 6936,
    "▁multiples": 6937,
    "▁FA": 6938,
    "bas": 6939,
    "▁Pres": 6940,
    "▁dévoil": 6941,
    "▁forc": 6942,
    "▁missions": 6943,
    "ake": 6944,
    "oga": 6945,
    "▁ancienne": 6946,
    "▁Parmi": 6947,
    "▁Victor": 6948,
    "onnez": 6949,
    "▁quantité": 6950,
    "▁Strasbourg": 6951,
    "amin": 6952,
    "▁Big": 6953,
    "▁Saison": 6954,
    "▁Enfants": 6955,
    "▁Double": 6956,
    "hy": 6957,
    "lein": 6958,
    "▁puisse": 6959,
    "ties": 6960,
    "▁posted": 6961,
    "ories": 6962,
    "atistiques": 6963,
    "▁EP": 6964,
    "▁Ni": 6965,
    "▁Annonce": 6966,
    "tube": 6967,
    "▁sup": 6968,
    "▁barre": 6969,
    "▁originale": 6970,
    "▁conç": 6971,
    "▁proven": 6972,
    "asp": 6973,
    "▁sources": 6974,
    "chir": 6975,
    "▁Running": 6976,
    "▁Bag": 6977,
    "▁Gel": 6978,
    "▁Matéri": 6979,
    "▁fans": 6980,
    "▁métiers": 6981,
    "▁boul": 6982,
    "IEN": 6983,
    "umeur": 6984,
    "ématiques": 6985,
    "▁ara": 6986,
    "▁Juil": 6987,
    "▁AG": 6988,
    "ressé": 6989,
    "IST": 6990,
    "▁Fabric": 6991,
    "▁suivantes": 6992,
    "royable": 6993,
    "cript": 6994,
    "vaux": 6995,
    "iquement": 6996,
    "▁moitié": 6997,
    "▁philos": 6998,
    "▁Aug": 6999,
    "▁Vincent": 7000,
    "▁er": 7001,
    "▁(8": 7002,
    "▁Voy": 7003,
    "rimé": 7004,
    "▁organisation": 7005,
    "ification": 7006,
    "▁2013,": 7007,
    "▁régions": 7008,
    "amer": 7009,
    "▁posi": 7010,
    ":45": 7011,
    "▁allemand": 7012,
    "▁experts": 7013,
    "ops": 7014,
    "▁voire": 7015,
    "▁obten": 7016,
    "▁élevé": 7017,
    "▁Articles": 7018,
    "▁DI": 7019,
    "▁2012,": 7020,
    "Id": 7021,
    "▁sociales": 7022,
    "▁Sélection": 7023,
    "▁intéressant": 7024,
    "BA": 7025,
    "▁lecteurs": 7026,
    "▁To": 7027,
    "▁Fév": 7028,
    "ragon": 7029,
    "▁Ép": 7030,
    ":12": 7031,
    "édération": 7032,
    "▁Fiche": 7033,
    "▁disque": 7034,
    "▁lecteur": 7035,
    "▁Commission": 7036,
    "▁pont": 7037,
    "▁bénéfic": 7038,
    "Ce": 7039,
    "▁Fleur": 7040,
    "▁57": 7041,
    "▁matern": 7042,
    "▁réparation": 7043,
    "▁voud": 7044,
    "back": 7045,
    "▁minute": 7046,
    "▁dimin": 7047,
    "▁chanson": 7048,
    "▁Gard": 7049,
    "bus": 7050,
    "▁fermeture": 7051,
    "UIT": 7052,
    "agnol": 7053,
    "▁Daniel": 7054,
    "▁Actualité": 7055,
    "▁8.": 7056,
    "▁Musique": 7057,
    "▁canadi": 7058,
    "▁fro": 7059,
    "CES": 7060,
    "ello": 7061,
    "▁auteur": 7062,
    "▁Détails": 7063,
    "▁Fig": 7064,
    "▁météo": 7065,
    "oussin": 7066,
    "delà": 7067,
    "cat": 7068,
    "till": 7069,
    "iterran": 7070,
    "▁Images": 7071,
    "▁Sl": 7072,
    "fond": 7073,
    "quisition": 7074,
    "▁statut": 7075,
    "▁Cir": 7076,
    "▁médica": 7077,
    "▁Chi": 7078,
    "”,": 7079,
    "▁mac": 7080,
    "▁génération": 7081,
    "▁mél": 7082,
    "▁bibliothèque": 7083,
    "▁TE": 7084,
    "licité": 7085,
    "OI": 7086,
    "pit": 7087,
    "ona": 7088,
    "▁Artis": 7089,
    "orient": 7090,
    "pédition": 7091,
    "inscription": 7092,
    "▁truc": 7093,
    "▁Disc": 7094,
    "▁attendre": 7095,
    "▁Mun": 7096,
    "▁Neuf": 7097,
    "▁Alpes": 7098,
    "▁montage": 7099,
    "argeur": 7100,
    "tem": 7101,
    "/2010": 7102,
    "oune": 7103,
    "▁intellig": 7104,
    "allery": 7105,
    "▁51": 7106,
    "▁Autre": 7107,
    "rénées": 7108,
    "ads": 7109,
    "▁Att": 7110,
    "istan": 7111,
    "▁fraî": 7112,
    "▁(3)": 7113,
    "▁cuisson": 7114,
    "▁navigation": 7115,
    "▁atelier": 7116,
    "index": 7117,
    "priété": 7118,
    "▁Lien": 7119,
    "▁Dra": 7120,
    "▁critique": 7121,
    "van": 7122,
    "▁Dès": 7123,
    "▁bis": 7124,
    "▁toiture": 7125,
    "▁chers": 7126,
    "▁pic": 7127,
    ".-": 7128,
    "▁tranqu": 7129,
    "vées": 7130,
    "▁tome": 7131,
    "aper": 7132,
    "▁critères": 7133,
    "ople": 7134,
    "▁2018.": 7135,
    "▁oppos": 7136,
    "gration": 7137,
    "ng": 7138,
    "inaison": 7139,
    "▁changements": 7140,
    "▁distribu": 7141,
    "▁author": 7142,
    "▁économiques": 7143,
    "▁réglement": 7144,
    "▁9,": 7145,
    "▁fan": 7146,
    "page": 7147,
    "change": 7148,
    "ssemblée": 7149,
    "▁délég": 7150,
    "uellement": 7151,
    "▁mig": 7152,
    "▁Directeur": 7153,
    "▁Cur": 7154,
    "▁lancement": 7155,
    "▁bateau": 7156,
    "▁principalement": 7157,
    "▁Env": 7158,
    "ilibre": 7159,
    "arn": 7160,
    "oxyd": 7161,
    "▁out": 7162,
    "▁Vendredi": 7163,
    "interest": 7164,
    "▁concl": 7165,
    "▁goû": 7166,
    "▁Voilà": 7167,
    "▁TTC": 7168,
    "tinéraire": 7169,
    "▁PARIS": 7170,
    "ulé": 7171,
    "▁présents": 7172,
    "▁opérations": 7173,
    "▁correc": 7174,
    "▁Tem": 7175,
    "ponse": 7176,
    "▁Fr": 7177,
    "▁pous": 7178,
    "▁Catégorie": 7179,
    "▁offert": 7180,
    "atures": 7181,
    "▁Agence": 7182,
    "▁dépend": 7183,
    "▁cheval": 7184,
    "▁formulaire": 7185,
    "▁Contact": 7186,
    "▁Stu": 7187,
    "/2011": 7188,
    "▁meme": 7189,
    "▁Olivier": 7190,
    "▁feuilles": 7191,
    "▁électriques": 7192,
    "▁principales": 7193,
    "ONS": 7194,
    "▁Hab": 7195,
    "▁défini": 7196,
    "feuille": 7197,
    "▁obligatoire": 7198,
    "ado": 7199,
    "▁comprenant": 7200,
    "▁Kh": 7201,
    ":01": 7202,
    "▁Rennes": 7203,
    "▁Studio": 7204,
    "▁2.0": 7205,
    "▁prénom": 7206,
    "▁peuple": 7207,
    "▁centres": 7208,
    "▁Météo": 7209,
    "▁radi": 7210,
    "ude": 7211,
    "▁Fille": 7212,
    "▁hos": 7213,
    "▁rentrée": 7214,
    "▁Az": 7215,
    "DS": 7216,
    "oseph": 7217,
    "▁June": 7218,
    "appro": 7219,
    "▁riches": 7220,
    "▁professeur": 7221,
    "▁param": 7222,
    "▁sciences": 7223,
    "TH": 7224,
    "affaire": 7225,
    "ortement": 7226,
    ":50": 7227,
    "▁Eau": 7228,
    "agra": 7229,
    "reur": 7230,
    "▁légère": 7231,
    "iée": 7232,
    "▁coordonn": 7233,
    "adis": 7234,
    "▁ateliers": 7235,
    "tige": 7236,
    "▁stu": 7237,
    "▁interne": 7238,
    "▁Royal": 7239,
    "AA": 7240,
    "▁standard": 7241,
    "▁8,": 7242,
    "▁Polo": 7243,
    "▁Galaxy": 7244,
    "▁justif": 7245,
    "PH": 7246,
    "▁tenir": 7247,
    "rairie": 7248,
    "06": 7249,
    "5,": 7250,
    "▁tapis": 7251,
    "▁rythme": 7252,
    "grès": 7253,
    "▁difficultés": 7254,
    "onnés": 7255,
    "▁usine": 7256,
    "▁Dimensions": 7257,
    "enue": 7258,
    "ular": 7259,
    "TR": 7260,
    "▁77": 7261,
    "▁privilég": 7262,
    "5)": 7263,
    "▁sports": 7264,
    "lettes": 7265,
    "▁kit": 7266,
    "▁association": 7267,
    "▁Michael": 7268,
    "--------": 7269,
    "▁Ri": 7270,
    "▁TH": 7271,
    "sière": 7272,
    "gie": 7273,
    "▁pouvant": 7274,
    "olique": 7275,
    "▁oeuvre": 7276,
    "▁Dub": 7277,
    "▁tôt": 7278,
    "▁pouces": 7279,
    "▁Restaurants": 7280,
    "▁boute": 7281,
    "▁renouvel": 7282,
    "▁léger": 7283,
    "▁extrême": 7284,
    "▁SC": 7285,
    "▁amén": 7286,
    "▁Hauts": 7287,
    "▁rangement": 7288,
    "▁Vir": 7289,
    "▁caméra": 7290,
    "pdf": 7291,
    "▁envis": 7292,
    "▁Tiss": 7293,
    "▁atteint": 7294,
    "▁Ide": 7295,
    "option": 7296,
    "▁secondes": 7297,
    "▁négoci": 7298,
    "▁Merc": 7299,
    "ota": 7300,
    "▁logo": 7301,
    "▁commerces": 7302,
    "▁Création": 7303,
    "▁scientifique": 7304,
    "▁Mix": 7305,
    "eurre": 7306,
    "▁Fort": 7307,
    "▁Cast": 7308,
    "press": 7309,
    "▁Hall": 7310,
    "▁dois": 7311,
    "▁pluie": 7312,
    "▁Méd": 7313,
    "▁2017.": 7314,
    "oct": 7315,
    "grédients": 7316,
    "▁Sky": 7317,
    "olis": 7318,
    "▁shirt": 7319,
    "▁soign": 7320,
    "dule": 7321,
    "irer": 7322,
    "▁cath": 7323,
    "▁Î": 7324,
    "▁ait": 7325,
    "▁environs": 7326,
    "▁eBay": 7327,
    "rive": 7328,
    "▁magasins": 7329,
    "clés": 7330,
    "▁publiques": 7331,
    "▁53": 7332,
    "anga": 7333,
    "alette": 7334,
    "ôts": 7335,
    "OW": 7336,
    "allage": 7337,
    "▁Diff": 7338,
    "▁mou": 7339,
    "▁best": 7340,
    "▁conçu": 7341,
    "trait": 7342,
    "▁Indi": 7343,
    "Acc": 7344,
    ":11": 7345,
    "Ab": 7346,
    "▁Os": 7347,
    "oppos": 7348,
    "lié": 7349,
    "▁Téléphone": 7350,
    "▁conduite": 7351,
    "▁responsables": 7352,
    "▁atteindre": 7353,
    "DA": 7354,
    "Ang": 7355,
    "tuces": 7356,
    "▁corre": 7357,
    "▁Housse": 7358,
    "▁pointe": 7359,
    "lif": 7360,
    "impos": 7361,
    "▁Bienvenue": 7362,
    ":40": 7363,
    "▁CC": 7364,
    "irst": 7365,
    "▁Test": 7366,
    "▁actuelle": 7367,
    "▁66": 7368,
    "édition": 7369,
    "▁pant": 7370,
    "▁Portu": 7371,
    "▁hyd": 7372,
    "▁House": 7373,
    "▁Christophe": 7374,
    "insp": 7375,
    "▁(7": 7376,
    "limin": 7377,
    "▁Eric": 7378,
    "▁10,": 7379,
    "ichel": 7380,
    "Cont": 7381,
    "▁château": 7382,
    "56": 7383,
    "▁58": 7384,
    "ritannique": 7385,
    "▁Amer": 7386,
    "▁Macron": 7387,
    "▁Pendant": 7388,
    "▁chaude": 7389,
    "▁Box": 7390,
    "▁révél": 7391,
    "▁éd": 7392,
    "ancy": 7393,
    "monie": 7394,
    "▁Simp": 7395,
    "▁Ly": 7396,
    "ank": 7397,
    "▁]": 7398,
    "▁Claude": 7399,
    "ey": 7400,
    ":18": 7401,
    "▁morts": 7402,
    "▁TR": 7403,
    "▁compétition": 7404,
    "oulin": 7405,
    "▁débar": 7406,
    "▁rembour": 7407,
    "▁mine": 7408,
    ":05": 7409,
    "imag": 7410,
    "irts": 7411,
    "IO": 7412,
    "bar": 7413,
    "▁alimentaire": 7414,
    "▁Wall": 7415,
    "▁Protection": 7416,
    "▁Annonces": 7417,
    "▁détaill": 7418,
    "▁110": 7419,
    "▁réserve": 7420,
    "▁Pull": 7421,
    "▁more": 7422,
    "▁invités": 7423,
    "▁JE": 7424,
    "▁sing": 7425,
    "▁Plusieurs": 7426,
    "▁69": 7427,
    "▁Point": 7428,
    "igny": 7429,
    "tures": 7430,
    "▁Dimanche": 7431,
    "▁entour": 7432,
    "▁sauf": 7433,
    "lon": 7434,
    "IGN": 7435,
    "jus": 7436,
    "▁inspi": 7437,
    "istoires": 7438,
    "▁Open": 7439,
    "▁Street": 7440,
    "▁Cle": 7441,
    "▁spécial": 7442,
    "bit": 7443,
    "▁apporte": 7444,
    "▁machines": 7445,
    "▁jet": 7446,
    "▁prison": 7447,
    "estation": 7448,
    "SC": 7449,
    "▁certainement": 7450,
    "▁agric": 7451,
    "▁Voiture": 7452,
    "▁foot": 7453,
    "▁Tarif": 7454,
    "▁Utilis": 7455,
    "▁Terrain": 7456,
    "▁financière": 7457,
    "▁hiver": 7458,
    "▁78": 7459,
    "▁blan": 7460,
    "▁chaise": 7461,
    "▁cherchez": 7462,
    "▁SK": 7463,
    "▁évid": 7464,
    "▁Droit": 7465,
    "ISS": 7466,
    "▁faç": 7467,
    "▁Smart": 7468,
    "▁Hotels": 7469,
    "kech": 7470,
    "études": 7471,
    "uck": 7472,
    "▁offrant": 7473,
    "▁Light": 7474,
    "TV": 7475,
    "▁analys": 7476,
    "▁aimer": 7477,
    "▁fêtes": 7478,
    "▁pack": 7479,
    "▁plateau": 7480,
    "unk": 7481,
    "▁leader": 7482,
    "rite": 7483,
    "▁réussite": 7484,
    "fil": 7485,
    "▁68": 7486,
    "▁SH": 7487,
    "▁Mid": 7488,
    "▁French": 7489,
    "▁quotidienne": 7490,
    "▁supplémentaire": 7491,
    "▁étapes": 7492,
    "kets": 7493,
    "rêts": 7494,
    ":14": 7495,
    "mique": 7496,
    "▁coups": 7497,
    "ateg": 7498,
    "▁installer": 7499,
    "▁Nor": 7500,
    "▁pourraient": 7501,
    "▁fus": 7502,
    "avons": 7503,
    "▁Vide": 7504,
    ":16": 7505,
    "▁aimé": 7506,
    "aider": 7507,
    "▁pain": 7508,
    "▁central": 7509,
    "▁Travail": 7510,
    "Jean": 7511,
    "▁auteurs": 7512,
    "lée": 7513,
    "▁Coton": 7514,
    "▁variété": 7515,
    "pi": 7516,
    ":19": 7517,
    "▁arrivée": 7518,
    "Télé": 7519,
    "▁mauvais": 7520,
    "▁description": 7521,
    "zy": 7522,
    "las": 7523,
    "▁Chemise": 7524,
    "▁Dig": 7525,
    "Th": 7526,
    "▁Contin": 7527,
    "▁convain": 7528,
    "-6": 7529,
    "▁résistance": 7530,
    "side": 7531,
    "▁Business": 7532,
    "▁Guill": 7533,
    "ida": 7534,
    "▁Mu": 7535,
    "▁Poly": 7536,
    "▁approche": 7537,
    "▁Insp": 7538,
    "▁(19": 7539,
    "▁Bac": 7540,
    "▁Led": 7541,
    "▁Ultra": 7542,
    "attend": 7543,
    "dite": 7544,
    "▁surf": 7545,
    "▁Gé": 7546,
    "▁Arts": 7547,
    "utation": 7548,
    "▁Catégories": 7549,
    "fran": 7550,
    "▁USA": 7551,
    "▁influ": 7552,
    "▁rang": 7553,
    "▁idéale": 7554,
    "▁Cliquez": 7555,
    "▁circulation": 7556,
    "▁Soi": 7557,
    "▁énergétique": 7558,
    "TP": 7559,
    "▁King": 7560,
    "itées": 7561,
    "▁Rechercher": 7562,
    "▁Jour": 7563,
    "criptions": 7564,
    "▁Offre": 7565,
    "▁fu": 7566,
    "uation": 7567,
    "▁restauration": 7568,
    "▁Jos": 7569,
    "▁So": 7570,
    "▁Ball": 7571,
    "▁Rencontres": 7572,
    "user": 7573,
    "▁Power": 7574,
    "▁immobilière": 7575,
    "cu": 7576,
    "▁Disponible": 7577,
    "érons": 7578,
    "51": 7579,
    "occup": 7580,
    "ètes": 7581,
    "▁Vel": 7582,
    "▁Blanche": 7583,
    "▁WC": 7584,
    "▁décis": 7585,
    "▁nov": 7586,
    "▁attentes": 7587,
    "▁Ferm": 7588,
    "▁Shoes": 7589,
    "04": 7590,
    "▁imprimé": 7591,
    "Cal": 7592,
    "▁roi": 7593,
    "▁militaire": 7594,
    "▁Peut": 7595,
    "▁murs": 7596,
    "▁pau": 7597,
    "▁Jusqu": 7598,
    "istiques": 7599,
    "▁aluminium": 7600,
    "rix": 7601,
    "ope": 7602,
    ":13": 7603,
    "▁Programme": 7604,
    "▁10.": 7605,
    "▁ePub": 7606,
    "▁vins": 7607,
    "artiste": 7608,
    "▁recommande": 7609,
    "itor": 7610,
    "▁Ici": 7611,
    "▁possibil": 7612,
    "▁sérieux": 7613,
    "▁Stock": 7614,
    "▁comporte": 7615,
    ":25": 7616,
    "aies": 7617,
    "uster": 7618,
    "Ser": 7619,
    "acé": 7620,
    "ias": 7621,
    "▁quasi": 7622,
    "▁indique": 7623,
    "▁marchand": 7624,
    "▁Micro": 7625,
    "▁traite": 7626,
    "▁Gh": 7627,
    "mond": 7628,
    "▁Rhône": 7629,
    "dd": 7630,
    "▁rappelle": 7631,
    "RL": 7632,
    "roph": 7633,
    "▁ceci": 7634,
    "▁Sécurité": 7635,
    "▁Maill": 7636,
    "eacute": 7637,
    "mettre": 7638,
    "-18": 7639,
    "aisons": 7640,
    "▁invite": 7641,
    "▁compéti": 7642,
    "hétique": 7643,
    "hôtes": 7644,
    "onoraires": 7645,
    "▁jamb": 7646,
    "▁reprise": 7647,
    "▁importants": 7648,
    "▁pouss": 7649,
    "▁front": 7650,
    "▁solaire": 7651,
    "▁command": 7652,
    "mpe": 7653,
    "▁Boul": 7654,
    "▁ill": 7655,
    "▁fuite": 7656,
    "▁Chauff": 7657,
    "▁instant": 7658,
    ":17": 7659,
    "▁sert": 7660,
    "▁dates": 7661,
    "▁Professionn": 7662,
    "-200": 7663,
    "▁rare": 7664,
    "/19": 7665,
    "moi": 7666,
    "dent": 7667,
    "▁Ram": 7668,
    "▁Certains": 7669,
    "ARL": 7670,
    "▁signifie": 7671,
    "pa": 7672,
    "TEL": 7673,
    "▁Format": 7674,
    "▁Envir": 7675,
    "Une": 7676,
    "▁160": 7677,
    "▁72": 7678,
    "▁Don": 7679,
    "▁Diam": 7680,
    "▁secret": 7681,
    "Liv": 7682,
    "▁chaleure": 7683,
    "exper": 7684,
    ":55": 7685,
    "▁immédiatement": 7686,
    "▁Banque": 7687,
    "▁Genève": 7688,
    "▁commandes": 7689,
    "▁encour": 7690,
    "▁frag": 7691,
    "▁Sweat": 7692,
    "Su": 7693,
    "▁fabricant": 7694,
    "tw": 7695,
    "▁2019.": 7696,
    "angl": 7697,
    "DR": 7698,
    "ouis": 7699,
    "▁intérieure": 7700,
    "▁Dj": 7701,
    ":02": 7702,
    "inn": 7703,
    "▁analyse": 7704,
    "▁faciliter": 7705,
    "▁Casual": 7706,
    "▁vaste": 7707,
    "▁Master": 7708,
    "▁Basse": 7709,
    "59": 7710,
    "▁esti": 7711,
    "▁transports": 7712,
    "▁artistique": 7713,
    "▁appelé": 7714,
    "▁maman": 7715,
    "▁Confort": 7716,
    "▁tac": 7717,
    "▁poche": 7718,
    "▁Fra": 7719,
    "▁chantier": 7720,
    "▁_": 7721,
    "▁collectif": 7722,
    "▁appartements": 7723,
    "▁anne": 7724,
    "▁labor": 7725,
    "▁procédure": 7726,
    "▁largement": 7727,
    "▁lav": 7728,
    "▁locales": 7729,
    "cor": 7730,
    "amine": 7731,
    "▁contrib": 7732,
    "▁élément": 7733,
    "agi": 7734,
    "adies": 7735,
    "inv": 7736,
    "▁Pot": 7737,
    "▁automobile": 7738,
    "eront": 7739,
    "▁ur": 7740,
    "▁Las": 7741,
    "▁puisqu": 7742,
    "▁War": 7743,
    "ries": 7744,
    "▁légales": 7745,
    "▁Camping": 7746,
    "▁magazine": 7747,
    "400": 7748,
    "▁Sab": 7749,
    "▁surv": 7750,
    "▁shopping": 7751,
    "div": 7752,
    "▁amen": 7753,
    "▁âge": 7754,
    "▁mairie": 7755,
    "▁rédaction": 7756,
    "▁patron": 7757,
    "où": 7758,
    "▁GRAT": 7759,
    "ford": 7760,
    "ouverts": 7761,
    "▁HP": 7762,
    "▁Interior": 7763,
    "▁CP": 7764,
    "▁pâ": 7765,
    "hou": 7766,
    "▁900": 7767,
    "▁produire": 7768,
    "▁aqu": 7769,
    "ICE": 7770,
    "assurer": 7771,
    "▁catégories": 7772,
    "enirs": 7773,
    "obtenir": 7774,
    "▁eaux": 7775,
    "▁préféré": 7776,
    "▁Bru": 7777,
    "leterre": 7778,
    "alimentation": 7779,
    "▁pein": 7780,
    "▁mén": 7781,
    "▁volet": 7782,
    "▁Rab": 7783,
    "▁André": 7784,
    "▁chargé": 7785,
    "▁courte": 7786,
    "▁revenus": 7787,
    "▁sympath": 7788,
    "èques": 7789,
    "▁fact": 7790,
    "▁email": 7791,
    "▁diffusion": 7792,
    "avion": 7793,
    "▁Collec": 7794,
    "▁ouvrage": 7795,
    "▁Résultat": 7796,
    "toine": 7797,
    ":32": 7798,
    "anmoins": 7799,
    "Ital": 7800,
    "chement": 7801,
    "▁clientèle": 7802,
    "▁Train": 7803,
    ":07": 7804,
    "▁gel": 7805,
    "▁évidemment": 7806,
    "▁stockage": 7807,
    "▁OU": 7808,
    "▁Grey": 7809,
    "doc": 7810,
    "▁garçon": 7811,
    ":59": 7812,
    "▁méthodes": 7813,
    "aya": 7814,
    ":35": 7815,
    "Alle": 7816,
    "▁Jer": 7817,
    "▁expériment": 7818,
    "osité": 7819,
    "aisselle": 7820,
    "▁2004": 7821,
    "▁perspec": 7822,
    "NA": 7823,
    "▁Piscine": 7824,
    "▁conform": 7825,
    "▁Chic": 7826,
    "▁poi": 7827,
    "ercices": 7828,
    "registre": 7829,
    "▁Ap": 7830,
    "▁Lis": 7831,
    "▁diagnostic": 7832,
    "Can": 7833,
    ":06": 7834,
    ":03": 7835,
    "BC": 7836,
    "▁sorties": 7837,
    ":26": 7838,
    "▁gout": 7839,
    ":43": 7840,
    "▁Bio": 7841,
    "▁Read": 7842,
    "▁Jeudi": 7843,
    "▁Espace": 7844,
    "▁CG": 7845,
    "▁climat": 7846,
    "▁FL": 7847,
    "▁bouche": 7848,
    "tuel": 7849,
    "▁Cô": 7850,
    ":04": 7851,
    "▁atti": 7852,
    "▁affaire": 7853,
    "▁intégré": 7854,
    "▁Emmanuel": 7855,
    "▁Aide": 7856,
    "▁permanent": 7857,
    "commun": 7858,
    "▁usage": 7859,
    "faits": 7860,
    "▁Venez": 7861,
    "ded": 7862,
    ".201": 7863,
    "▁live": 7864,
    "rastru": 7865,
    "una": 7866,
    "▁plong": 7867,
    "immobilier": 7868,
    "▁Asics": 7869,
    "ANCE": 7870,
    "▁soutenir": 7871,
    "OUT": 7872,
    "▁accus": 7873,
    "ablir": 7874,
    "▁discours": 7875,
    "BE": 7876,
    "▁62": 7877,
    "rure": 7878,
    "mant": 7879,
    "VC": 7880,
    "▁doig": 7881,
    "▁réflexion": 7882,
    "▁III": 7883,
    "ressions": 7884,
    "atherine": 7885,
    "▁automatiquement": 7886,
    "▁Dist": 7887,
    "▁SO": 7888,
    "▁Escarpins": 7889,
    "▁Foot": 7890,
    "▁circons": 7891,
    "▁complexe": 7892,
    "▁SAINT": 7893,
    "idation": 7894,
    "Op": 7895,
    "tières": 7896,
    "▁proposés": 7897,
    "▁Idées": 7898,
    "ockt": 7899,
    "▁délai": 7900,
    "▁deb": 7901,
    "(\"": 7902,
    "éton": 7903,
    "SM": 7904,
    "▁objet": 7905,
    "▁SER": 7906,
    "ussions": 7907,
    "ELL": 7908,
    "▁signé": 7909,
    "▁67": 7910,
    "▁modes": 7911,
    "ouvoir": 7912,
    "▁répondu": 7913,
    "-8": 7914,
    "▁poule": 7915,
    "▁Riv": 7916,
    "▁sugg": 7917,
    "▁juridique": 7918,
    ":41": 7919,
    "▁ench": 7920,
    "▁MON": 7921,
    ":44": 7922,
    "▁ya": 7923,
    "▁voil": 7924,
    "ierry": 7925,
    "▁infos": 7926,
    "Uni": 7927,
    "▁utilisés": 7928,
    "▁tente": 7929,
    "▁indispensable": 7930,
    "▁Sciences": 7931,
    "▁Chauss": 7932,
    "▁céléb": 7933,
    "▁recev": 7934,
    "▁Domaine": 7935,
    "▁commerciale": 7936,
    "▁Attention": 7937,
    "▁360": 7938,
    "chons": 7939,
    "alisés": 7940,
    "kn": 7941,
    ":52": 7942,
    "▁Sus": 7943,
    "▁estim": 7944,
    "▁forêt": 7945,
    "▁score": 7946,
    ":51": 7947,
    "▁Miss": 7948,
    ":47": 7949,
    "▁maroc": 7950,
    "plant": 7951,
    "▁ride": 7952,
    "▁acheté": 7953,
    "▁normal": 7954,
    "▁remont": 7955,
    "▁massage": 7956,
    ":27": 7957,
    ":29": 7958,
    "▁Barcel": 7959,
    "▁sk": 7960,
    "ountry": 7961,
    ":42": 7962,
    "xes": 7963,
    "▁Ensuite": 7964,
    "▁Organis": 7965,
    "AK": 7966,
    "umer": 7967,
    "onsable": 7968,
    "gny": 7969,
    "sez": 7970,
    "ENCE": 7971,
    "hed": 7972,
    "▁Maintenant": 7973,
    "▁renseignements": 7974,
    ":56": 7975,
    "▁gran": 7976,
    "53": 7977,
    ":28": 7978,
    ":46": 7979,
    "▁Trouver": 7980,
    "▁guit": 7981,
    "utrition": 7982,
    "▁sexe": 7983,
    "▁ambiance": 7984,
    ":22": 7985,
    ":24": 7986,
    "orté": 7987,
    "▁Cri": 7988,
    "▁76": 7989,
    "▁chante": 7990,
    "0000": 7991,
    "▁mons": 7992,
    "Az": 7993,
    "blé": 7994,
    "▁révolution": 7995,
    "▁Galerie": 7996,
    "▁Barb": 7997,
    ":08": 7998,
    "▁Jun": 7999,
    ":54": 8000,
    "asseur": 8001,
    "▁portée": 8002,
    ":48": 8003,
    "sa": 8004,
    "▁coach": 8005,
    "▁accueille": 8006,
    "entreprises": 8007,
    "▁report": 8008,
    ":36": 8009,
    "▁Leg": 8010,
    "-05": 8011,
    "▁possibles": 8012,
    "excell": 8013,
    "▁Talon": 8014,
    "▁déchets": 8015,
    "▁évo": 8016,
    "\\/": 8017,
    "▁talent": 8018,
    "rock": 8019,
    ":23": 8020,
    "▁réservé": 8021,
    "embourg": 8022,
    ":31": 8023,
    "riers": 8024,
    "▁Classic": 8025,
    "oline": 8026,
    "▁fame": 8027,
    "crivez": 8028,
    "écoute": 8029,
    ":37": 8030,
    "étranger": 8031,
    "▁Faute": 8032,
    "▁BM": 8033,
    "Paris": 8034,
    "▁Lor": 8035,
    "▁midi": 8036,
    "ij": 8037,
    "auc": 8038,
    "▁Tab": 8039,
    "▁accompagner": 8040,
    "▁flex": 8041,
    "onomique": 8042,
    "chauff": 8043,
    ":57": 8044,
    ":09": 8045,
    "tons": 8046,
    "],": 8047,
    ":34": 8048,
    "▁Bos": 8049,
    "enfants": 8050,
    "oral": 8051,
    "èvres": 8052,
    "aph": 8053,
    "erland": 8054,
    "investissement": 8055,
    "ési": 8056,
    "enci": 8057,
    "▁chirurg": 8058,
    "vies": 8059,
    ":21": 8060,
    "conte": 8061,
    "▁Soldes": 8062,
    "▁Bén": 8063,
    ":39": 8064,
    "ANG": 8065,
    "▁matières": 8066,
    "▁Mardi": 8067,
    "▁constitue": 8068,
    "▁exposition": 8069,
    "▁humaine": 8070,
    "▁monter": 8071,
    "œuvre": 8072,
    "▁conscience": 8073,
    ":38": 8074,
    ":49": 8075,
    "▁vendeur": 8076,
    "agas": 8077,
    "▁Hav": 8078,
    "▁Blous": 8079,
    "58": 8080,
    "▁découvert": 8081,
    ":33": 8082,
    "vard": 8083,
    "▁grave": 8084,
    "▁James": 8085,
    "ating": 8086,
    "instant": 8087,
    "vations": 8088,
    "▁AFP": 8089,
    "▁Avril": 8090,
    "%.": 8091,
    "IK": 8092,
    "QUES": 8093,
    "chez": 8094,
    "▁Aoû": 8095,
    "▁Next": 8096,
    "▁beurre": 8097,
    "▁publiée": 8098,
    "▁Stand": 8099,
    "▁sinon": 8100,
    "▁accueillir": 8101,
    ":53": 8102,
    "▁Moc": 8103,
    "armes": 8104,
    "▁respecter": 8105,
    "▁rock": 8106,
    "▁It": 8107,
    "▁2001": 8108,
    "ierres": 8109,
    "▁câble": 8110,
    "▁glis": 8111,
    "▁plafond": 8112,
    "Marie": 8113,
    "rondissement": 8114,
    "wear": 8115,
    "▁agents": 8116,
    "▁spécialisée": 8117,
    "▁Ebook": 8118,
    "▁Poids": 8119,
    "ÉL": 8120,
    "▁finir": 8121,
    "▁amoureux": 8122,
    "For": 8123,
    "▁phénom": 8124,
    "▁Set": 8125,
    "▁faisait": 8126,
    "▁officielle": 8127,
    "▁cycle": 8128,
    "▁Made": 8129,
    "▁Hel": 8130,
    "▁Madame": 8131,
    "▁Pen": 8132,
    "▁Lundi": 8133,
    "cade": 8134,
    "OO": 8135,
    "icone": 8136,
    "▁remplacement": 8137,
    "▁2011,": 8138,
    "atou": 8139,
    "▁tiers": 8140,
    "dou": 8141,
    "▁licence": 8142,
    "▁content": 8143,
    "▁math": 8144,
    "▁dehors": 8145,
    "▁revenu": 8146,
    "ACE": 8147,
    "olesc": 8148,
    "▁Talons": 8149,
    "▁spir": 8150,
    "illages": 8151,
    "▁Où": 8152,
    "▁croire": 8153,
    "Val": 8154,
    "ricol": 8155,
    "▁citoyens": 8156,
    "▁savez": 8157,
    "▁convention": 8158,
    "57": 8159,
    "▁rubrique": 8160,
    "▁chaudi": 8161,
    "▁électroniques": 8162,
    "▁trouvez": 8163,
    "atte": 8164,
    "truc": 8165,
    "▁optimis": 8166,
    "▁circuit": 8167,
    "▁expériences": 8168,
    "▁acqu": 8169,
    "apt": 8170,
    "▁pa": 8171,
    "▁Julien": 8172,
    "▁récomp": 8173,
    "mentaire": 8174,
    "▁revue": 8175,
    "éti": 8176,
    "▁Canapé": 8177,
    "agu": 8178,
    "oigne": 8179,
    "etnam": 8180,
    "▁Madrid": 8181,
    "▁adidas": 8182,
    "▁plaque": 8183,
    "▁maître": 8184,
    "▁décès": 8185,
    "▁Mex": 8186,
    "▁renforcer": 8187,
    "▁profit": 8188,
    "▁incontourn": 8189,
    "▁Mercredi": 8190,
    "/2009": 8191,
    "voire": 8192,
    "▁industriel": 8193,
    "▁99": 8194,
    "icat": 8195,
    "ffret": 8196,
    "▁Unique": 8197,
    "nac": 8198,
    "▁judici": 8199,
    "over": 8200,
    "▁TF": 8201,
    "▁recrutement": 8202,
    "▁vise": 8203,
    "▁erreur": 8204,
    "▁forcément": 8205,
    "▁archite": 8206,
    "Art": 8207,
    "urée": 8208,
    "quillage": 8209,
    "▁propriétaires": 8210,
    "PER": 8211,
    "uie": 8212,
    "▁Amb": 8213,
    "▁conviv": 8214,
    "▁her": 8215,
    "▁parole": 8216,
    "tar": 8217,
    "agir": 8218,
    "-06": 8219,
    "▁championnat": 8220,
    "otal": 8221,
    "▁solide": 8222,
    "uves": 8223,
    "▁combien": 8224,
    "Off": 8225,
    "▁Gro": 8226,
    "-20": 8227,
    "▁hô": 8228,
    "▁tester": 8229,
    "Ob": 8230,
    "owe": 8231,
    "▁lave": 8232,
    "mann": 8233,
    "▁légèrement": 8234,
    "ilib": 8235,
    "Es": 8236,
    "cop": 8237,
    "▁Spa": 8238,
    "-04": 8239,
    "▁EAN": 8240,
    "▁impressionn": 8241,
    "émission": 8242,
    "▁Dre": 8243,
    "▁Hiver": 8244,
    "▁Plage": 8245,
    "oche": 8246,
    "▁meur": 8247,
    "lever": 8248,
    "îte": 8249,
    "▁familiale": 8250,
    ":58": 8251,
    "▁opport": 8252,
    "oni": 8253,
    "reuve": 8254,
    "Pad": 8255,
    "house": 8256,
    "ural": 8257,
    "▁esprit": 8258,
    "missions": 8259,
    "▁absolument": 8260,
    "▁bri": 8261,
    "▁poudre": 8262,
    "eroun": 8263,
    "▁coque": 8264,
    "ccident": 8265,
    "▁Willi": 8266,
    "▁Boots": 8267,
    "MB": 8268,
    "▁do": 8269,
    "▁recherchez": 8270,
    "▁joie": 8271,
    "▁attra": 8272,
    "▁Tourisme": 8273,
    "ava": 8274,
    "chée": 8275,
    "▁excellente": 8276,
    "usage": 8277,
    "▁occup": 8278,
    "▁ON": 8279,
    "euillez": 8280,
    "▁Rh": 8281,
    "▁piste": 8282,
    "▁stade": 8283,
    "▁juge": 8284,
    "▁Chef": 8285,
    "adel": 8286,
    "▁Music": 8287,
    "▁porté": 8288,
    "52": 8289,
    "acteur": 8290,
    "cession": 8291,
    "diction": 8292,
    "auf": 8293,
    "ologne": 8294,
    "▁ouvrir": 8295,
    "▁retard": 8296,
    "▁financier": 8297,
    "MC": 8298,
    "acements": 8299,
    "tul": 8300,
    "▁défaut": 8301,
    "illez": 8302,
    "▁Coque": 8303,
    "▁Janvier": 8304,
    "cope": 8305,
    "▁consiste": 8306,
    "▁Ci": 8307,
    "▁impossible": 8308,
    "▁revanche": 8309,
    "intég": 8310,
    "gées": 8311,
    "▁découvrez": 8312,
    "ART": 8313,
    "euve": 8314,
    "▁Hot": 8315,
    "ICH": 8316,
    "▁lois": 8317,
    "▁pouvait": 8318,
    "▁spéciale": 8319,
    "▁Bert": 8320,
    "▁Pièce": 8321,
    "▁situe": 8322,
    "▁cache": 8323,
    "▁intro": 8324,
    "▁label": 8325,
    "▁Live": 8326,
    "agés": 8327,
    "étiques": 8328,
    "ason": 8329,
    "▁audi": 8330,
    "▁Profitez": 8331,
    "▁Real": 8332,
    "▁consultez": 8333,
    "▁déclaration": 8334,
    "▁fixe": 8335,
    "▁tests": 8336,
    "▁feuille": 8337,
    "GB": 8338,
    "▁Dark": 8339,
    "▁naturels": 8340,
    "▁planète": 8341,
    "▁portail": 8342,
    "▁vel": 8343,
    "▁Machine": 8344,
    "▁épisode": 8345,
    "▁Pub": 8346,
    "▁dossiers": 8347,
    "mosph": 8348,
    "ustralie": 8349,
    "▁proposent": 8350,
    "==": 8351,
    "▁Jaune": 8352,
    "As": 8353,
    "').": 8354,
    "onnaie": 8355,
    "▁formule": 8356,
    "▁sportif": 8357,
    "▁Tel": 8358,
    "/4": 8359,
    "▁Pul": 8360,
    "▁Direction": 8361,
    "quie": 8362,
    "▁pilote": 8363,
    "▁commission": 8364,
    "▁Juillet": 8365,
    "▁achats": 8366,
    "acheter": 8367,
    "sey": 8368,
    "▁faux": 8369,
    "aisie": 8370,
    "▁fit": 8371,
    "▁possibilités": 8372,
    "▁Ti": 8373,
    "▁portant": 8374,
    "arr": 8375,
    "▁défi": 8376,
    "preneur": 8377,
    "▁Dominique": 8378,
    "▁ence": 8379,
    "ticolore": 8380,
    "▁fabricants": 8381,
    "▁huit": 8382,
    "▁civile": 8383,
    "▁maintenance": 8384,
    "▁Tunisie": 8385,
    "▁bureaux": 8386,
    "▁voulu": 8387,
    "Mo": 8388,
    "▁dédié": 8389,
    "▁Malgré": 8390,
    "igner": 8391,
    "uu": 8392,
    "agen": 8393,
    "▁patient": 8394,
    "▁spécialisés": 8395,
    "ouest": 8396,
    "▁Rése": 8397,
    "▁Barcelone": 8398,
    "▁Bad": 8399,
    "amel": 8400,
    "▁accéder": 8401,
    "▁dirigeants": 8402,
    "▁trafic": 8403,
    "térieurs": 8404,
    "▁auront": 8405,
    "▁transfert": 8406,
    "▁vraie": 8407,
    "▁cle": 8408,
    "oste": 8409,
    "etooth": 8410,
    "▁tenter": 8411,
    "▁noms": 8412,
    "élic": 8413,
    "cevoir": 8414,
    "▁affec": 8415,
    "Ouest": 8416,
    "▁sable": 8417,
    "uts": 8418,
    "Intern": 8419,
    "▁engagement": 8420,
    "▁Der": 8421,
    "tiver": 8422,
    "▁tur": 8423,
    "▁coul": 8424,
    "▁Appar": 8425,
    "▁faveur": 8426,
    "alet": 8427,
    "▁huile": 8428,
    "▁Support": 8429,
    "▁Théâtre": 8430,
    "Pe": 8431,
    "tens": 8432,
    "▁cancer": 8433,
    "▁envoyer": 8434,
    "▁devoir": 8435,
    "▁Fashion": 8436,
    "▁Bir": 8437,
    "▁carré": 8438,
    "PC": 8439,
    "▁Développement": 8440,
    "uten": 8441,
    "▁Temps": 8442,
    "III": 8443,
    "****": 8444,
    "▁Resort": 8445,
    "▁secteurs": 8446,
    "Ré": 8447,
    "ental": 8448,
    "▁Bébé": 8449,
    "outch": 8450,
    "▁intervention": 8451,
    "▁Cond": 8452,
    "omét": 8453,
    "pare": 8454,
    ".1": 8455,
    "raël": 8456,
    "obs": 8457,
    "Me": 8458,
    "▁pompe": 8459,
    "▁prod": 8460,
    "▁Europé": 8461,
    "▁Richard": 8462,
    "▁élégant": 8463,
    "▁comportement": 8464,
    "▁animal": 8465,
    "▁spe": 8466,
    "▁spécialisé": 8467,
    "▁réflé": 8468,
    "▁admin": 8469,
    "ACK": 8470,
    "èces": 8471,
    "▁Mobile": 8472,
    "▁probablement": 8473,
    "-07": 8474,
    "▁crée": 8475,
    "sans": 8476,
    "▁Deco": 8477,
    "▁Game": 8478,
    "élibat": 8479,
    "▁Georges": 8480,
    "tiennent": 8481,
    "▁Adulte": 8482,
    "effectu": 8483,
    "▁équipé": 8484,
    "▁Octobre": 8485,
    "atie": 8486,
    "audi": 8487,
    "▁file": 8488,
    "▁publicité": 8489,
    "▁Var": 8490,
    "erman": 8491,
    "▁tablette": 8492,
    "▁exter": 8493,
    "▁°": 8494,
    "▁63": 8495,
    "▁civil": 8496,
    "▁atten": 8497,
    "▁ore": 8498,
    "ender": 8499,
    "AZ": 8500,
    "album": 8501,
    "eté": 8502,
    "▁Nath": 8503,
    "▁Color": 8504,
    "▁comité": 8505,
    "uant": 8506,
    "▁Pie": 8507,
    "▁Tapis": 8508,
    "OUV": 8509,
    "disc": 8510,
    "▁alent": 8511,
    "▁cérémonie": 8512,
    "▁Aur": 8513,
    "ila": 8514,
    "▁Fonds": 8515,
    "▁racont": 8516,
    "yo": 8517,
    "▁dep": 8518,
    "▁Women": 8519,
    "▁balcon": 8520,
    "yright": 8521,
    "▁Beaucoup": 8522,
    "▁Div": 8523,
    "▁Ent": 8524,
    "armée": 8525,
    "03": 8526,
    "lot": 8527,
    "▁books": 8528,
    "calier": 8529,
    "▁BD": 8530,
    "▁Trump": 8531,
    "▁donnant": 8532,
    "▁capac": 8533,
    "▁victime": 8534,
    "orb": 8535,
    "▁protég": 8536,
    "eller": 8537,
    "▁spécifique": 8538,
    "uto": 8539,
    "▁nul": 8540,
    "▁récl": 8541,
    "bri": 8542,
    "▁couvre": 8543,
    "▁Pièces": 8544,
    "phones": 8545,
    "▁douceur": 8546,
    "lantique": 8547,
    "inage": 8548,
    "▁rasse": 8549,
    "autant": 8550,
    "▁Renault": 8551,
    "mais": 8552,
    "eme": 8553,
    "yr": 8554,
    "▁Cannes": 8555,
    "▁employés": 8556,
    "▁amateurs": 8557,
    "ènement": 8558,
    "Institut": 8559,
    "▁Achetez": 8560,
    "▁dot": 8561,
    "▁pensez": 8562,
    "▁réduit": 8563,
    "▁classiques": 8564,
    "awa": 8565,
    "▁régl": 8566,
    "▁soldes": 8567,
    "▁spécifiques": 8568,
    "etre": 8569,
    "opéra": 8570,
    "▁frère": 8571,
    "▁chauss": 8572,
    "▁soumis": 8573,
    "▁sportifs": 8574,
    "▁scientifiques": 8575,
    "▁ber": 8576,
    "▁exac": 8577,
    "▁Fréd": 8578,
    "▁lesquels": 8579,
    "Ann": 8580,
    "onnet": 8581,
    "itz": 8582,
    "▁institu": 8583,
    "▁gourmand": 8584,
    "▁Loisirs": 8585,
    "▁joué": 8586,
    "▁Course": 8587,
    "▁Los": 8588,
    "▁Brésil": 8589,
    "▁arrivé": 8590,
    "▁Série": 8591,
    "▁promen": 8592,
    "WE": 8593,
    "▁deg": 8594,
    "AIRE": 8595,
    "▁collections": 8596,
    "▁Docu": 8597,
    "▁Science": 8598,
    "TF": 8599,
    "▁cité": 8600,
    "▁Partager": 8601,
    "span": 8602,
    "▁Hug": 8603,
    "▁Ile": 8604,
    "▁2010,": 8605,
    "▁éti": 8606,
    "Bon": 8607,
    "eline": 8608,
    "attention": 8609,
    "leg": 8610,
    "▁12,": 8611,
    "▁Sen": 8612,
    "▁consommateurs": 8613,
    "mois": 8614,
    "▁personnelles": 8615,
    "▁calendrier": 8616,
    "▁figure": 8617,
    "▁compét": 8618,
    "▁ache": 8619,
    "▁séries": 8620,
    "▁viande": 8621,
    "▁serveur": 8622,
    "vise": 8623,
    "uclé": 8624,
    "▁COL": 8625,
    "▁définition": 8626,
    "-17": 8627,
    "▁GU": 8628,
    "apprentissage": 8629,
    "▁Love": 8630,
    "▁pétro": 8631,
    "hn": 8632,
    "îner": 8633,
    "inscrire": 8634,
    "▁humain": 8635,
    "▁Novembre": 8636,
    "▁trimestre": 8637,
    "▁adulte": 8638,
    "▁Commerce": 8639,
    "▁Frais": 8640,
    "▁74": 8641,
    "top": 8642,
    "▁russe": 8643,
    "▁inscrit": 8644,
    "enquête": 8645,
    "▁our": 8646,
    "▁devra": 8647,
    "▁personnalisé": 8648,
    "▁installations": 8649,
    "onald": 8650,
    "▁session": 8651,
    "obal": 8652,
    "▁Longue": 8653,
    "▁130": 8654,
    "angement": 8655,
    "▁attendant": 8656,
    "aménagement": 8657,
    "▁Bud": 8658,
    "Association": 8659,
    "▁Peinture": 8660,
    "ulaires": 8661,
    "oubli": 8662,
    "endue": 8663,
    "▁Jordan": 8664,
    "▁Fédération": 8665,
    "▁réalisée": 8666,
    "afe": 8667,
    "▁wc": 8668,
    "DC": 8669,
    "▁restent": 8670,
    "appartement": 8671,
    "▁Amp": 8672,
    "▁MO": 8673,
    "Gar": 8674,
    "oriage": 8675,
    "▁Boî": 8676,
    "▁Aussi": 8677,
    "▁identi": 8678,
    "ids": 8679,
    "▁one": 8680,
    "▁suit": 8681,
    "▁Stéphane": 8682,
    "crits": 8683,
    "FC": 8684,
    "▁Ki": 8685,
    "éth": 8686,
    "ument": 8687,
    "▁Première": 8688,
    "▁devraient": 8689,
    "Char": 8690,
    "▁Front": 8691,
    "▁énergie": 8692,
    "▁Gaz": 8693,
    "▁Pascal": 8694,
    "▁vole": 8695,
    "▁GT": 8696,
    "▁tv": 8697,
    "Si": 8698,
    "▁coucher": 8699,
    "▁dessous": 8700,
    "▁prévention": 8701,
    "jo": 8702,
    "▁signal": 8703,
    "▁coute": 8704,
    "▁appli": 8705,
    "▁Dam": 8706,
    "▁françaises": 8707,
    "room": 8708,
    "▁contrats": 8709,
    "▁secrétaire": 8710,
    "▁vain": 8711,
    "▁remettre": 8712,
    "▁progres": 8713,
    "...).": 8714,
    "▁potentiel": 8715,
    "▁125": 8716,
    "▁concurrence": 8717,
    "mation": 8718,
    "▁Veuillez": 8719,
    "▁Bracelet": 8720,
    "itime": 8721,
    "prendre": 8722,
    "▁précision": 8723,
    "▁liées": 8724,
    "▁sèche": 8725,
    "▁dessins": 8726,
    "td": 8727,
    "▁coûts": 8728,
    "▁chercheurs": 8729,
    "deurs": 8730,
    "▁allant": 8731,
    "▁Anglais": 8732,
    "OST": 8733,
    "jon": 8734,
    "▁Emb": 8735,
    "iors": 8736,
    "▁langues": 8737,
    "ographe": 8738,
    "▁coffre": 8739,
    "rip": 8740,
    "▁Septembre": 8741,
    "IDE": 8742,
    "êle": 8743,
    "▁installé": 8744,
    "str": 8745,
    "écriture": 8746,
    "▁Bob": 8747,
    "▁remplacer": 8748,
    "SL": 8749,
    "▁Jeunes": 8750,
    "▁plaît": 8751,
    "▁dimension": 8752,
    "▁mobiles": 8753,
    "▁ling": 8754,
    "rien": 8755,
    "▁recours": 8756,
    "geot": 8757,
    "▁fati": 8758,
    "▁scul": 8759,
    "vious": 8760,
    "▁Ib": 8761,
    "▁Version": 8762,
    "▁racc": 8763,
    "▁CM": 8764,
    "ercle": 8765,
    "▁Sing": 8766,
    "▁scolaires": 8767,
    "ontrac": 8768,
    "▁visible": 8769,
    "veil": 8770,
    "mente": 8771,
    "▁PM": 8772,
    "Go": 8773,
    "board": 8774,
    "▁vivant": 8775,
    "▁Balance": 8776,
    "▁ge": 8777,
    "plo": 8778,
    "▁typ": 8779,
    "▁impression": 8780,
    "rif": 8781,
    "▁Sénégal": 8782,
    "▁soyez": 8783,
    "▁Août": 8784,
    "▁quin": 8785,
    "▁franch": 8786,
    "09": 8787,
    "”.": 8788,
    "▁deven": 8789,
    "▁actuel": 8790,
    "▁fortement": 8791,
    "▁critiques": 8792,
    "▁journaliste": 8793,
    "▁Moh": 8794,
    "▁chiens": 8795,
    "▁regret": 8796,
    "▁Décoration": 8797,
    "animation": 8798,
    "▁disting": 8799,
    "▁trouvent": 8800,
    "iseaux": 8801,
    "▁maladies": 8802,
    "▁emprun": 8803,
    "▁nuits": 8804,
    "COM": 8805,
    "▁Moto": 8806,
    "▁oct": 8807,
    "▁lycée": 8808,
    "▁fondament": 8809,
    "VA": 8810,
    "uste": 8811,
    "▁vintage": 8812,
    "pédia": 8813,
    "▁Lan": 8814,
    "▁lits": 8815,
    "▁Croix": 8816,
    "▁CAN": 8817,
    "▁Nap": 8818,
    "utilisateur": 8819,
    "Mer": 8820,
    "innovation": 8821,
    "kg": 8822,
    "▁aventure": 8823,
    "▁Suivant": 8824,
    "▁arts": 8825,
    "▁agricole": 8826,
    ".....": 8827,
    "▁terminé": 8828,
    "▁sentir": 8829,
    "▁reprendre": 8830,
    "▁FRANCE": 8831,
    "▁enjeux": 8832,
    "/1": 8833,
    "▁pistes": 8834,
    "▁apport": 8835,
    "▁Durée": 8836,
    "▁prolong": 8837,
    "Assemblée": 8838,
    "ieuses": 8839,
    "▁Joseph": 8840,
    "OUL": 8841,
    "▁extérieure": 8842,
    "▁vigueur": 8843,
    "▁Pau": 8844,
    "▁ronde": 8845,
    "▁rass": 8846,
    "emples": 8847,
    "▁Fourn": 8848,
    "veg": 8849,
    "lymp": 8850,
    "▁Cade": 8851,
    "▁devait": 8852,
    "édé": 8853,
    "entine": 8854,
    "▁ep": 8855,
    "Homme": 8856,
    "▁Direct": 8857,
    "▁700": 8858,
    "▁expliqué": 8859,
    "▁tw": 8860,
    "▁offrent": 8861,
    "jection": 8862,
    "▁Crédit": 8863,
    "▁motif": 8864,
    "ôles": 8865,
    "▁garantir": 8866,
    "▁culturel": 8867,
    "intervention": 8868,
    "orée": 8869,
    "▁chefs": 8870,
    "endi": 8871,
    "abelle": 8872,
    "▁rapides": 8873,
    "▁Printemps": 8874,
    "▁mauvaise": 8875,
    "hr": 8876,
    "▁Sub": 8877,
    "▁paysage": 8878,
    "▁Excell": 8879,
    "upe": 8880,
    "▁raconte": 8881,
    "▁hommage": 8882,
    "▁reconnu": 8883,
    "▁Consultez": 8884,
    "▁Supp": 8885,
    "▁inqui": 8886,
    "▁aper": 8887,
    "rès": 8888,
    "ESS": 8889,
    "▁Hal": 8890,
    "▁Pil": 8891,
    "▁record": 8892,
    "dien": 8893,
    "▁laissé": 8894,
    "contre": 8895,
    "▁tomber": 8896,
    "▁Lauren": 8897,
    "▁raf": 8898,
    "événement": 8899,
    "▁Comité": 8900,
    "jan": 8901,
    "aventure": 8902,
    "▁utilisée": 8903,
    "ogo": 8904,
    "▁blo": 8905,
    "artis": 8906,
    "▁Bruno": 8907,
    "▁Idé": 8908,
    "▁bancaire": 8909,
    "▁ja": 8910,
    "ciens": 8911,
    "▁2016.": 8912,
    "oug": 8913,
    "▁VF": 8914,
    "cessoire": 8915,
    "▁Cuis": 8916,
    "▁classé": 8917,
    "isés": 8918,
    "cas": 8919,
    "▁Henri": 8920,
    "▁Rapport": 8921,
    "▁marqué": 8922,
    "▁humaines": 8923,
    "▁Chat": 8924,
    "/3": 8925,
    "âches": 8926,
    "outchouc": 8927,
    "▁Rog": 8928,
    "yclis": 8929,
    "▁maill": 8930,
    "▁écologique": 8931,
    "infos": 8932,
    "diques": 8933,
    "▁rétro": 8934,
    "▁rup": 8935,
    "▁Slim": 8936,
    "importance": 8937,
    "▁règlement": 8938,
    "other": 8939,
    "Éc": 8940,
    "▁profond": 8941,
    "oker": 8942,
    "▁Classique": 8943,
    "▁estime": 8944,
    "ONE": 8945,
    "évalu": 8946,
    "▁jean": 8947,
    "▁alentours": 8948,
    "▁(4)": 8949,
    "▁Ir": 8950,
    "▁abus": 8951,
    "▁88": 8952,
    "▁Vols": 8953,
    "Loire": 8954,
    "térie": 8955,
    "▁souvenirs": 8956,
    "tiss": 8957,
    "▁Doud": 8958,
    "▁grossesse": 8959,
    "▁mobilité": 8960,
    "▁quitter": 8961,
    "▁iphone": 8962,
    "▁mousse": 8963,
    "▁84": 8964,
    "ueill": 8965,
    "▁artisans": 8966,
    "ebok": 8967,
    "▁isol": 8968,
    "▁traditionnelle": 8969,
    "▁rues": 8970,
    "▁compatible": 8971,
    "▁sentiment": 8972,
    "sim": 8973,
    "menter": 8974,
    "▁discipl": 8975,
    "▁ouverture": 8976,
    "DM": 8977,
    "▁Quant": 8978,
    "▁demeure": 8979,
    "▁Poste": 8980,
    "Rép": 8981,
    "▁Ralph": 8982,
    "▁IP": 8983,
    "▁sacs": 8984,
    "▁centaines": 8985,
    "inos": 8986,
    "▁rouges": 8987,
    "aisseur": 8988,
    "▁boite": 8989,
    "vil": 8990,
    "▁plant": 8991,
    "▁Fu": 8992,
    "▁ly": 8993,
    "idées": 8994,
    "▁numériques": 8995,
    "▁Far": 8996,
    "▁RDV": 8997,
    "▁Luxembourg": 8998,
    "▁Eu": 8999,
    "/2": 9000,
    "▁croy": 9001,
    "▁affiche": 9002,
    "▁coiffure": 9003,
    "électricité": 9004,
    "▁Ford": 9005,
    "endo": 9006,
    "▁Die": 9007,
    "itants": 9008,
    "Be": 9009,
    "▁Berlin": 9010,
    "▁coopération": 9011,
    "▁Fondation": 9012,
    "▁Département": 9013,
    "▁représentant": 9014,
    "cides": 9015,
    "▁Général": 9016,
    "étaire": 9017,
    "▁science": 9018,
    "▁coordonnées": 9019,
    "▁aband": 9020,
    "▁dat": 9021,
    "▁disponibilité": 9022,
    "▁Force": 9023,
    "order": 9024,
    "▁séd": 9025,
    "rants": 9026,
    "▁Parce": 9027,
    "▁Bijoux": 9028,
    "30)": 9029,
    "20)": 9030,
    "magne": 9031,
    "assade": 9032,
    "▁Gér": 9033,
    "ômage": 9034,
    "▁Gare": 9035,
    "▁exigences": 9036,
    "▁exécu": 9037,
    "▁éduc": 9038,
    "▁manip": 9039,
    "hentique": 9040,
    "▁côte": 9041,
    "TRE": 9042,
    "exist": 9043,
    "▁musul": 9044,
    "▁surveillance": 9045,
    "ENS": 9046,
    "▁randonnée": 9047,
    "▁accro": 9048,
    "▁transp": 9049,
    "▁appelle": 9050,
    "▁Association": 9051,
    "▁décide": 9052,
    "▁grosse": 9053,
    "iforn": 9054,
    "▁Tome": 9055,
    "▁déroule": 9056,
    "outs": 9057,
    "▁lende": 9058,
    "▁donnent": 9059,
    "▁renovation": 9060,
    "▁délais": 9061,
    "ricot": 9062,
    "▁sand": 9063,
    "▁postes": 9064,
    "-09": 9065,
    "-)": 9066,
    "agiste": 9067,
    "▁pli": 9068,
    "▁souvenir": 9069,
    "▁cass": 9070,
    "ista": 9071,
    "▁Francis": 9072,
    "▁règle": 9073,
    "réh": 9074,
    "odge": 9075,
    "▁Palais": 9076,
    "installer": 9077,
    "▁MER": 9078,
    "▁violence": 9079,
    "inion": 9080,
    "▁conséquences": 9081,
    "dial": 9082,
    "▁Offres": 9083,
    "▁prévue": 9084,
    "CHAR": 9085,
    "wan": 9086,
    "▁régional": 9087,
    "▁11,": 9088,
    "cédent": 9089,
    "Ec": 9090,
    "▁tribunal": 9091,
    "▁198": 9092,
    "▁brut": 9093,
    "▁Moderne": 9094,
    "fre": 9095,
    "▁maintenir": 9096,
    "istres": 9097,
    "▁Arn": 9098,
    "otos": 9099,
    "▁video": 9100,
    "ando": 9101,
    "▁contenus": 9102,
    "▁emm": 9103,
    "aché": 9104,
    "TIQUE": 9105,
    "▁agences": 9106,
    "▁Maurice": 9107,
    "▁Golf": 9108,
    "▁appropri": 9109,
    "RS": 9110,
    "▁Rub": 9111,
    "ophone": 9112,
    "oxydable": 9113,
    "ugby": 9114,
    "identité": 9115,
    "▁financiers": 9116,
    "▁correspondant": 9117,
    "▁Inv": 9118,
    "▁morceaux": 9119,
    "▁9.": 9120,
    "appareil": 9121,
    "▁sommet": 9122,
    "▁profondeur": 9123,
    "▁fier": 9124,
    "▁chute": 9125,
    "▁efforts": 9126,
    "▁61": 9127,
    "▁champion": 9128,
    "Tra": 9129,
    "▁situations": 9130,
    "ely": 9131,
    "cedes": 9132,
    "contra": 9133,
    "▁Ast": 9134,
    "▁mys": 9135,
    "▁littérature": 9136,
    "▁Shirt": 9137,
    "orne": 9138,
    "ustom": 9139,
    "▁souhaitent": 9140,
    "bs": 9141,
    "nw": 9142,
    "▁avions": 9143,
    "LC": 9144,
    "▁CV": 9145,
    "▁glace": 9146,
    "cule": 9147,
    "▁Nationale": 9148,
    "▁vern": 9149,
    "agez": 9150,
    "▁chaussure": 9151,
    "▁Manger": 9152,
    "▁collège": 9153,
    "Sur": 9154,
    "Michel": 9155,
    "▁cliquant": 9156,
    "▁expert": 9157,
    "▁pure": 9158,
    "▁Thierry": 9159,
    "▁bénév": 9160,
    "▁Store": 9161,
    "▁relax": 9162,
    "▁PSG": 9163,
    "▁und": 9164,
    "Rés": 9165,
    "▁tendances": 9166,
    "bsp": 9167,
    "▁Tam": 9168,
    "▁Pou": 9169,
    "▁Expl": 9170,
    "▁discussion": 9171,
    "▁détr": 9172,
    "▁bâtiments": 9173,
    "ken": 9174,
    "▁conserver": 9175,
    "arrêt": 9176,
    "▁Modifié": 9177,
    "cesse": 9178,
    "▁européennes": 9179,
    "▁14,": 9180,
    "▁récol": 9181,
    "▁EL": 9182,
    "tics": 9183,
    "▁Laisser": 9184,
    "▁prestation": 9185,
    "aker": 9186,
    "▁compagnies": 9187,
    "▁offer": 9188,
    "▁coûte": 9189,
    "▁préal": 9190,
    "▁entrer": 9191,
    "▁créations": 9192,
    "▁contemporain": 9193,
    "▁Hi": 9194,
    "▁extrêmement": 9195,
    "▁Moyen": 9196,
    "▁médecine": 9197,
    "tibles": 9198,
    "/2008": 9199,
    "▁sauce": 9200,
    "tick": 9201,
    "▁Guillaume": 9202,
    "▁contrain": 9203,
    "oué": 9204,
    "▁pdf": 9205,
    "No": 9206,
    "▁venu": 9207,
    "rob": 9208,
    "▁Mr": 9209,
    "▁Court": 9210,
    "MO": 9211,
    "▁dure": 9212,
    "Br": 9213,
    "gi": 9214,
    "▁ouvre": 9215,
    "▁capacités": 9216,
    "▁ID": 9217,
    "▁Situé": 9218,
    "Marne": 9219,
    "▁liquide": 9220,
    "▁colis": 9221,
    "burg": 9222,
    "▁brû": 9223,
    "▁Office": 9224,
    "▁Brown": 9225,
    "%,": 9226,
    "▁Clim": 9227,
    "▁sensibil": 9228,
    "mante": 9229,
    "▁golf": 9230,
    "▁éditions": 9231,
    "-7": 9232,
    "pper": 9233,
    "▁mol": 9234,
    "▁Land": 9235,
    "dam": 9236,
    "tification": 9237,
    "▁Bref": 9238,
    "▁Ouest": 9239,
    "▁pneus": 9240,
    "Mari": 9241,
    "▁Hor": 9242,
    "▁Rac": 9243,
    "▁Nett": 9244,
    "ican": 9245,
    "▁suisse": 9246,
    "▁célibat": 9247,
    "▁organisations": 9248,
    "ÉS": 9249,
    "▁pér": 9250,
    "ridge": 9251,
    "▁alimentaires": 9252,
    "▁touristiques": 9253,
    "▁Encore": 9254,
    "oys": 9255,
    "▁pren": 9256,
    "astien": 9257,
    "▁Leur": 9258,
    "▁info": 9259,
    "▁Histor": 9260,
    "▁courage": 9261,
    "▁galerie": 9262,
    "▁voc": 9263,
    "▁Imprimer": 9264,
    "▁parent": 9265,
    "▁92": 9266,
    "avirus": 9267,
    "▁roulant": 9268,
    "▁proposition": 9269,
    "▁But": 9270,
    "▁Rien": 9271,
    "▁sold": 9272,
    "▁Afric": 9273,
    "▁XL": 9274,
    "▁euro": 9275,
    "naires": 9276,
    "▁déplacement": 9277,
    "▁Arg": 9278,
    "TIC": 9279,
    "▁chansons": 9280,
    "atine": 9281,
    "▁Anth": 9282,
    "▁fonctionnalités": 9283,
    "allenge": 9284,
    "▁(+": 9285,
    "▁Ox": 9286,
    "▁ste": 9287,
    "atrième": 9288,
    "ulletin": 9289,
    "▁marine": 9290,
    "icacité": 9291,
    "▁Colomb": 9292,
    "▁spécialistes": 9293,
    "ims": 9294,
    "Av": 9295,
    "▁mandat": 9296,
    "▁japonais": 9297,
    "▁collaborateurs": 9298,
    "▁Hong": 9299,
    "▁Sony": 9300,
    "▁massif": 9301,
    "▁lumineux": 9302,
    "wa": 9303,
    "▁confront": 9304,
    "▁Conver": 9305,
    "▁Annuaire": 9306,
    "▁fraîche": 9307,
    "onnier": 9308,
    "▁vice": 9309,
    "enis": 9310,
    "▁dimensions": 9311,
    "▁occas": 9312,
    "PAR": 9313,
    "▁placé": 9314,
    "▁Ath": 9315,
    "▁have": 9316,
    "▁masse": 9317,
    "▁Day": 9318,
    "▁Gran": 9319,
    "▁développé": 9320,
    "▁participé": 9321,
    "▁Longues": 9322,
    "▁Vue": 9323,
    "rr": 9324,
    "exercice": 9325,
    "Seine": 9326,
    "▁Popul": 9327,
    "▁Quels": 9328,
    "œil": 9329,
    "▁réforme": 9330,
    "▁mâ": 9331,
    "▁désign": 9332,
    "▁Vestes": 9333,
    "ettez": 9334,
    "▁Station": 9335,
    "▁avisVoir": 9336,
    "▁OR": 9337,
    "▁dress": 9338,
    "▁poursuit": 9339,
    "▁Kn": 9340,
    "▁lendemain": 9341,
    "▁Étu": 9342,
    "enser": 9343,
    "▁Plate": 9344,
    "▁Fly": 9345,
    "université": 9346,
    "lick": 9347,
    "very": 9348,
    "mit": 9349,
    "▁Audi": 9350,
    "▁buts": 9351,
    "ster": 9352,
    "▁Avenue": 9353,
    "▁thèmes": 9354,
    "vergne": 9355,
    "▁toilette": 9356,
    "▁etre": 9357,
    "▁participe": 9358,
    "▁britannique": 9359,
    "iveau": 9360,
    "tenue": 9361,
    "▁1999": 9362,
    "anton": 9363,
    "onnant": 9364,
    "cessite": 9365,
    "issante": 9366,
    "agon": 9367,
    "▁Pourtant": 9368,
    "▁Réunion": 9369,
    "▁destiné": 9370,
    "acle": 9371,
    "▁Metal": 9372,
    "▁échanges": 9373,
    "▁méri": 9374,
    "▁laine": 9375,
    "automne": 9376,
    "lige": 9377,
    "▁Denis": 9378,
    "▁traduction": 9379,
    "▁Batterie": 9380,
    "▁Leroy": 9381,
    "▁arbres": 9382,
    "▁trajet": 9383,
    "▁résolution": 9384,
    "atelier": 9385,
    "▁15,": 9386,
    "▁maîtrise": 9387,
    "▁spécialement": 9388,
    "▁connecter": 9389,
    "▁pollu": 9390,
    "▁titul": 9391,
    "▁reli": 9392,
    "▁Telecharger": 9393,
    "▁adj": 9394,
    "▁écrire": 9395,
    "▁répé": 9396,
    "▁canapé": 9397,
    "aha": 9398,
    "▁Salut": 9399,
    "▁350": 9400,
    "▁humains": 9401,
    "▁effectivement": 9402,
    "êcher": 9403,
    "▁concep": 9404,
    "mise": 9405,
    "▁composition": 9406,
    "▁Conseils": 9407,
    "champ": 9408,
    "▁hor": 9409,
    "▁Bab": 9410,
    "▁étrangers": 9411,
    "▁Gui": 9412,
    "▁bruit": 9413,
    "▁rénov": 9414,
    "▁Lar": 9415,
    "▁dialogue": 9416,
    "/24": 9417,
    "dor": 9418,
    "▁Ble": 9419,
    "bal": 9420,
    "▁hyp": 9421,
    "▁86": 9422,
    "▁médical": 9423,
    "SU": 9424,
    "▁Dernier": 9425,
    "hib": 9426,
    "chage": 9427,
    "▁Perform": 9428,
    "ichage": 9429,
    "▁clubs": 9430,
    "▁pommes": 9431,
    "énager": 9432,
    "▁GPS": 9433,
    "▁rapports": 9434,
    "▁Tennis": 9435,
    "AFP": 9436,
    "▁Affaires": 9437,
    "▁pleinement": 9438,
    "bel": 9439,
    "▁banques": 9440,
    "▁dent": 9441,
    "▁Plat": 9442,
    "▁moindre": 9443,
    "▁Wikipédia": 9444,
    "effet": 9445,
    "▁raff": 9446,
    "▁primaire": 9447,
    "utés": 9448,
    "▁Demande": 9449,
    "activités": 9450,
    "omo": 9451,
    "▁Fauteuil": 9452,
    "▁poursuivre": 9453,
    "▁changé": 9454,
    "▁territori": 9455,
    "▁dépar": 9456,
    "▁solidarité": 9457,
    "adémie": 9458,
    "▁flash": 9459,
    "▁terrains": 9460,
    "Posté": 9461,
    "oureuse": 9462,
    "▁Fonction": 9463,
    "Allemagne": 9464,
    "▁Bol": 9465,
    "BL": 9466,
    "▁pierres": 9467,
    "Aff": 9468,
    "▁sén": 9469,
    "▁satisfaction": 9470,
    "mun": 9471,
    "▁brun": 9472,
    "▁ordonn": 9473,
    "▁composée": 9474,
    "▁écoute": 9475,
    "▁sexy": 9476,
    "quare": 9477,
    "absence": 9478,
    "▁orange": 9479,
    "ked": 9480,
    "▁DJ": 9481,
    "▁CAP": 9482,
    "▁connais": 9483,
    "war": 9484,
    "active": 9485,
    "\")": 9486,
    "▁transformation": 9487,
    "nd": 9488,
    "▁difficulté": 9489,
    "▁particulière": 9490,
    "▁séances": 9491,
    "img": 9492,
    "▁London": 9493,
    "▁vouloir": 9494,
    "hôpital": 9495,
    "▁panneaux": 9496,
    "onavirus": 9497,
    "▁Métal": 9498,
    "▁termin": 9499,
    "▁engage": 9500,
    "▁accompagné": 9501,
    "iture": 9502,
    "▁data": 9503,
    "▁mam": 9504,
    "▁élus": 9505,
    "▁cig": 9506,
    "ACH": 9507,
    "▁Short": 9508,
    "▁héros": 9509,
    "▁blancs": 9510,
    "▁remarqu": 9511,
    "sous": 9512,
    "▁élimin": 9513,
    "▁Française": 9514,
    "GO": 9515,
    "▁chacune": 9516,
    "▁mobilier": 9517,
    "▁Bourse": 9518,
    "AUL": 9519,
    "▁pop": 9520,
    "▁endroits": 9521,
    "inez": 9522,
    ".2": 9523,
    "tue": 9524,
    "zer": 9525,
    "▁chré": 9526,
    "▁dirig": 9527,
    "ultures": 9528,
    "▁associé": 9529,
    "▁entend": 9530,
    "day": 9531,
    "▁Système": 9532,
    "atellite": 9533,
    "▁Mocassins": 9534,
    "▁discuter": 9535,
    "title": 9536,
    "outes": 9537,
    "▁virus": 9538,
    "▁sanitaire": 9539,
    "▁Langue": 9540,
    "▁pen": 9541,
    "▁Sel": 9542,
    "▁plages": 9543,
    "▁sourire": 9544,
    "▁Tal": 9545,
    "▁Terrasse": 9546,
    "▁traiter": 9547,
    "▁détente": 9548,
    "▁parquet": 9549,
    "▁couche": 9550,
    "▁asp": 9551,
    "▁Tissu": 9552,
    "▁PER": 9553,
    "Hôtel": 9554,
    "▁Jér": 9555,
    "Mon": 9556,
    "▁97": 9557,
    "▁Jon": 9558,
    "▁79": 9559,
    "TEUR": 9560,
    "▁perfe": 9561,
    "▁Pet": 9562,
    "▁Produit": 9563,
    "ISON": 9564,
    "light": 9565,
    "▁toucher": 9566,
    "▁PU": 9567,
    "▁Instagram": 9568,
    "00,": 9569,
    "Agence": 9570,
    "commande": 9571,
    "▁101": 9572,
    "▁connaît": 9573,
    "itte": 9574,
    "▁Mol": 9575,
    "▁spiritu": 9576,
    ".6": 9577,
    "ricolage": 9578,
    "▁Ski": 9579,
    "▁réussir": 9580,
    "ordinaire": 9581,
    "▁prêts": 9582,
    "▁vendu": 9583,
    "ouge": 9584,
    "▁incroyable": 9585,
    "▁Responsable": 9586,
    "▁touristique": 9587,
    "▁tombe": 9588,
    "▁Ikea": 9589,
    "EE": 9590,
    "▁Ceci": 9591,
    "cidents": 9592,
    "▁Heure": 9593,
    "wp": 9594,
    "▁Mass": 9595,
    "/7": 9596,
    "▁13,": 9597,
    "▁autonom": 9598,
    "uge": 9599,
    "▁Cé": 9600,
    "▁remis": 9601,
    "▁Mali": 9602,
    "▁disp": 9603,
    "▁flux": 9604,
    "▁avent": 9605,
    "▁scand": 9606,
    "▁fins": 9607,
    "▁constructeur": 9608,
    "▁Bé": 9609,
    "▁adaptée": 9610,
    "▁home": 9611,
    "▁signature": 9612,
    "▁Command": 9613,
    "commer": 9614,
    "▁conseille": 9615,
    "▁histoires": 9616,
    "▁organisée": 9617,
    "▁Février": 9618,
    "▁courses": 9619,
    "arrê": 9620,
    "▁sam": 9621,
    "ignan": 9622,
    "▁Normandie": 9623,
    "▁pensé": 9624,
    "▁rez": 9625,
    "▁ajoute": 9626,
    "▁Hollande": 9627,
    "▁propositions": 9628,
    "lies": 9629,
    "▁Maj": 9630,
    "▁Mati": 9631,
    "▁importantes": 9632,
    "appelle": 9633,
    "▁nourriture": 9634,
    "▁gratuites": 9635,
    "▁province": 9636,
    "▁cong": 9637,
    "▁Ã": 9638,
    "▁créée": 9639,
    "▁Lettre": 9640,
    "Chaussures": 9641,
    "Pas": 9642,
    "▁intitu": 9643,
    "ermont": 9644,
    "▁Vern": 9645,
    "▁mille": 9646,
    "▁déménagement": 9647,
    "lee": 9648,
    "▁CDI": 9649,
    "évaluation": 9650,
    "ozy": 9651,
    "▁Aw": 9652,
    "rices": 9653,
    "▁islam": 9654,
    "▁médecins": 9655,
    "▁mouvements": 9656,
    "▁arrêté": 9657,
    "▁Toutefois": 9658,
    "▁Longueur": 9659,
    "▁Nouvelles": 9660,
    "arts": 9661,
    "▁Robes": 9662,
    "▁Parking": 9663,
    "▁OP": 9664,
    "inaires": 9665,
    "▁Presse": 9666,
    "aster": 9667,
    "▁Mark": 9668,
    "▁Week": 9669,
    "ermain": 9670,
    "▁73": 9671,
    "discount": 9672,
    "▁Disney": 9673,
    "uez": 9674,
    "Orient": 9675,
    "▁Atelier": 9676,
    "▁nuclé": 9677,
    "▁Fête": 9678,
    "▁astuces": 9679,
    "agriculture": 9680,
    "▁marron": 9681,
    "aders": 9682,
    "▁répert": 9683,
    "▁vérité": 9684,
    "▁Industri": 9685,
    "▁subst": 9686,
    "▁pul": 9687,
    "▁propriétés": 9688,
    "astiques": 9689,
    "ONNE": 9690,
    "▁Albert": 9691,
    "▁souha": 9692,
    "tical": 9693,
    "▁Trib": 9694,
    "▁viewed": 9695,
    "YS": 9696,
    "sserie": 9697,
    "▁tourner": 9698,
    "▁Grenoble": 9699,
    "*,": 9700,
    "▁souris": 9701,
    "▁THE": 9702,
    "endie": 9703,
    "▁HT": 9704,
    "ébéc": 9705,
    ".»": 9706,
    "chargez": 9707,
    "▁codes": 9708,
    "▁appris": 9709,
    "▁prochaines": 9710,
    "▁pc": 9711,
    "▁Mou": 9712,
    "ésus": 9713,
    "▁découvre": 9714,
    "▁Emp": 9715,
    "orable": 9716,
    "▁conduire": 9717,
    "▁Lav": 9718,
    "▁North": 9719,
    "▁Group": 9720,
    "-08": 9721,
    "▁Kindle": 9722,
    "▁Littéra": 9723,
    "▁Marché": 9724,
    "▁Soirée": 9725,
    "▁accident": 9726,
    "▁inféri": 9727,
    "▁bet": 9728,
    "▁clip": 9729,
    "anglais": 9730,
    "▁Dro": 9731,
    "▁Conn": 9732,
    "▁Outi": 9733,
    "▁94": 9734,
    "▁Capuche": 9735,
    "▁PD": 9736,
    "▁œuvres": 9737,
    "▁élab": 9738,
    "▁structures": 9739,
    "▁ratt": 9740,
    "▁cord": 9741,
    "▁maintien": 9742,
    "▁Catherine": 9743,
    "▁consultation": 9744,
    "▁Rol": 9745,
    "▁Portugal": 9746,
    "▁fournisseur": 9747,
    "%2": 9748,
    "aves": 9749,
    "▁européens": 9750,
    "hop": 9751,
    "anna": 9752,
    "▁show": 9753,
    "▁bron": 9754,
    "INS": 9755,
    "▁visitor": 9756,
    "lar": 9757,
    "▁March": 9758,
    "▁qualités": 9759,
    "▁finition": 9760,
    "▁chou": 9761,
    "▁hydra": 9762,
    "▁Inde": 9763,
    "ducteurs": 9764,
    "apeau": 9765,
    "TIF": 9766,
    "identif": 9767,
    "▁ED": 9768,
    "▁basé": 9769,
    "sidence": 9770,
    "auto": 9771,
    "GA": 9772,
    "▁2015.": 9773,
    "ématique": 9774,
    "▁nommé": 9775,
    "▁indépendant": 9776,
    "▁Ouver": 9777,
    "▁linge": 9778,
    "▁REN": 9779,
    "▁set": 9780,
    "▁motifs": 9781,
    "▁matelas": 9782,
    "▁puissant": 9783,
    "anner": 9784,
    "▁attribu": 9785,
    "Paul": 9786,
    "▁Action": 9787,
    "▁détach": 9788,
    "▁RT": 9789,
    "cesseur": 9790,
    "architecture": 9791,
    "▁exactement": 9792,
    "▁2003": 9793,
    "activ": 9794,
    "▁2009,": 9795,
    "uiles": 9796,
    "Italie": 9797,
    "▁chômage": 9798,
    "▁chic": 9799,
    "ropole": 9800,
    "LET": 9801,
    "▁98": 9802,
    "france": 9803,
    "arrière": 9804,
    "GS": 9805,
    "▁Gener": 9806,
    "▁poisson": 9807,
    "▁travailleurs": 9808,
    "▁Ak": 9809,
    "▁récupérer": 9810,
    "mus": 9811,
    "▁2020,": 9812,
    "▁Wash": 9813,
    "▁Local": 9814,
    "▁laissez": 9815,
    "▁modernes": 9816,
    "église": 9817,
    "▁Tableau": 9818,
    "▁Nu": 9819,
    "▁prennent": 9820,
    "▁Université": 9821,
    "▁tennis": 9822,
    "▁management": 9823,
    "hal": 9824,
    "▁Suites": 9825,
    "▁époque": 9826,
    "ocie": 9827,
    "▁Blouson": 9828,
    "><": 9829,
    "Hz": 9830,
    "agerie": 9831,
    "so": 9832,
    "▁foi": 9833,
    "▁mécanique": 9834,
    "▁verte": 9835,
    "▁souple": 9836,
    "▁matchs": 9837,
    "▁Roche": 9838,
    "▁rupture": 9839,
    "ima": 9840,
    "▁ingén": 9841,
    "oui": 9842,
    "▁Sophie": 9843,
    "▁English": 9844,
    "▁Sark": 9845,
    "▁Full": 9846,
    "▁isolation": 9847,
    "▁visant": 9848,
    "▁Andre": 9849,
    "▁intérêt": 9850,
    "▁Frédéric": 9851,
    "umb": 9852,
    "otage": 9853,
    "▁href": 9854,
    "▁Bande": 9855,
    "▁Originals": 9856,
    "▁asc": 9857,
    "▁casque": 9858,
    "▁nouveautés": 9859,
    "▁qualifi": 9860,
    "▁emplacement": 9861,
    "ventions": 9862,
    "▁nécessite": 9863,
    "▁87": 9864,
    "▁fibre": 9865,
    "▁Compos": 9866,
    "▁Infos": 9867,
    "%)": 9868,
    "▁Antoine": 9869,
    "▁Case": 9870,
    "▁alg": 9871,
    "Luc": 9872,
    "▁dents": 9873,
    "HD": 9874,
    "ev": 9875,
    "▁Docteur": 9876,
    "▁seuls": 9877,
    "▁artiste": 9878,
    "HA": 9879,
    "▁Team": 9880,
    "▁hauts": 9881,
    "▁Celui": 9882,
    "▁doubl": 9883,
    "▁Merlin": 9884,
    "olue": 9885,
    "bilité": 9886,
    "opposition": 9887,
    "ativité": 9888,
    "▁rédi": 9889,
    "aurais": 9890,
    "▁Pharm": 9891,
    "500": 9892,
    "▁Anton": 9893,
    "▁Médec": 9894,
    "▁thermique": 9895,
    "illard": 9896,
    "▁tension": 9897,
    "oper": 9898,
    "▁Vent": 9899,
    "▁Alexandre": 9900,
    "▁Réponse": 9901,
    "exception": 9902,
    "▁photographie": 9903,
    "EMENT": 9904,
    "▁motivation": 9905,
    ".7": 9906,
    "▁manifestation": 9907,
    "▁SM": 9908,
    "▁intel": 9909,
    "▁personnels": 9910,
    "▁Util": 9911,
    "▁fri": 9912,
    "rak": 9913,
    "peur": 9914,
    "Espagne": 9915,
    "IZ": 9916,
    "▁internationales": 9917,
    "-13": 9918,
    "▁pertin": 9919,
    "sé": 9920,
    "atric": 9921,
    "▁Blan": 9922,
    "igneur": 9923,
    "▁développe": 9924,
    "▁envoyé": 9925,
    "▁procès": 9926,
    "▁augmentation": 9927,
    "ocktail": 9928,
    "▁gren": 9929,
    "▁citron": 9930,
    "ôture": 9931,
    "▁Hauteur": 9932,
    "▁pav": 9933,
    "hol": 9934,
    "oeuvre": 9935,
    "▁représentants": 9936,
    "rase": 9937,
    "▁Size": 9938,
    "enseur": 9939,
    "▁actif": 9940,
    "▁augmenter": 9941,
    "▁Mah": 9942,
    "▁Décembre": 9943,
    "▁dépannage": 9944,
    "▁candidature": 9945,
    "non": 9946,
    "▁Zoom": 9947,
    "▁construit": 9948,
    "oints": 9949,
    "▁Visite": 9950,
    "▁;)": 9951,
    "▁Hos": 9952,
    "▁veste": 9953,
    "▁Previous": 9954,
    "▁coloris": 9955,
    "▁83": 9956,
    "▁bref": 9957,
    "▁lisse": 9958,
    "▁ram": 9959,
    "▁human": 9960,
    "▁effectué": 9961,
    "Co": 9962,
    "▁Hil": 9963,
    "écri": 9964,
    "▁stim": 9965,
    "rup": 9966,
    "▁Uk": 9967,
    "▁Café": 9968,
    "itale": 9969,
    "▁statistiques": 9970,
    "▁vib": 9971,
    "qx": 9972,
    "▁DR": 9973,
    "▁semi": 9974,
    "▁quels": 9975,
    "▁TRA": 9976,
    "▁Conception": 9977,
    "erty": 9978,
    "▁Jet": 9979,
    "ÉLÉ": 9980,
    "▁Soft": 9981,
    "▁expli": 9982,
    "▁activ": 9983,
    "ènements": 9984,
    "▁domin": 9985,
    "▁Recettes": 9986,
    "▁tag": 9987,
    "▁tailles": 9988,
    "▁revoir": 9989,
    "▁annuel": 9990,
    "▁recons": 9991,
    "aimerais": 9992,
    "▁artif": 9993,
    "▁bonus": 9994,
    "▁adaptés": 9995,
    "CR": 9996,
    "▁82": 9997,
    "▁mener": 9998,
    "oubliez": 9999,
    "▁Gilles": 10000,
    "VER": 10001,
    "NES": 10002,
    "ango": 10003,
    "trations": 10004,
    "▁million": 10005,
    "▁Mans": 10006,
    "utilise": 10007,
    "▁ES": 10008,
    "▁impact": 10009,
    "▁19,": 10010,
    "ictionnaire": 10011,
    "MAN": 10012,
    "isodes": 10013,
    "▁mass": 10014,
    "▁pire": 10015,
    "clusion": 10016,
    "haus": 10017,
    "▁courrier": 10018,
    "dr": 10019,
    "▁Express": 10020,
    "▁if": 10021,
    "itat": 10022,
    "ambiance": 10023,
    "();": 10024,
    "atic": 10025,
    "▁assuré": 10026,
    "axe": 10027,
    "▁associés": 10028,
    "▁fine": 10029,
    "euvres": 10030,
    "▁dommage": 10031,
    "▁comparer": 10032,
    "▁lesquelles": 10033,
    "▁Management": 10034,
    "▁Pop": 10035,
    "▁will": 10036,
    "▁Center": 10037,
    "▁économies": 10038,
    "▁Ton": 10039,
    "ateaux": 10040,
    "▁COMP": 10041,
    "▁spéciales": 10042,
    "▁2002": 10043,
    "▁confidenti": 10044,
    "lation": 10045,
    "▁Devis": 10046,
    "▁Guerre": 10047,
    "▁Appartements": 10048,
    "▁gagne": 10049,
    "▁Pay": 10050,
    "▁judiciaire": 10051,
    "▁Hand": 10052,
    "-16": 10053,
    "▁quart": 10054,
    "▁proposées": 10055,
    "ordinateur": 10056,
    "ovi": 10057,
    "▁Journée": 10058,
    "ouchage": 10059,
    "éramique": 10060,
    "▁paire": 10061,
    "▁internationaux": 10062,
    "▁AVE": 10063,
    "▁pauvre": 10064,
    "êne": 10065,
    "▁dépenses": 10066,
    "▁Oh": 10067,
    "▁NEU": 10068,
    "atta": 10069,
    "▁business": 10070,
    "dage": 10071,
    "▁Manuel": 10072,
    "▁déterminer": 10073,
    "▁Rond": 10074,
    "▁lampe": 10075,
    "ancienne": 10076,
    "exécu": 10077,
    "▁enseignants": 10078,
    "▁UK": 10079,
    "letter": 10080,
    "cap": 10081,
    "▁pensée": 10082,
    "formation": 10083,
    "▁DÉ": 10084,
    "cha": 10085,
    "▁allé": 10086,
    "▁avance": 10087,
    "▁clairement": 10088,
    "iro": 10089,
    "chen": 10090,
    "▁modifications": 10091,
    "field": 10092,
    "▁fourni": 10093,
    "▁Ajoutez": 10094,
    "▁constitution": 10095,
    "▁seraient": 10096,
    "▁Fun": 10097,
    "▁Word": 10098,
    "▁amus": 10099,
    "▁Besoin": 10100,
    "cro": 10101,
    "rières": 10102,
    "rible": 10103,
    "▁Concours": 10104,
    "▁Flash": 10105,
    "▁emplois": 10106,
    "▁PAS": 10107,
    "▁Monaco": 10108,
    "udo": 10109,
    "eneuve": 10110,
    "▁fromage": 10111,
    "▁ol": 10112,
    "▁médicaments": 10113,
    "▁gras": 10114,
    "ctor": 10115,
    "aujourd": 10116,
    "▁détaillée": 10117,
    "agner": 10118,
    "uz": 10119,
    "weet": 10120,
    "erv": 10121,
    "▁sin": 10122,
    "▁active": 10123,
    "▁filtre": 10124,
    "▁reconnaissance": 10125,
    "cho": 10126,
    "▁transmission": 10127,
    "▁Sum": 10128,
    "▁Midi": 10129,
    "▁avantage": 10130,
    "▁mp": 10131,
    "wiki": 10132,
    "▁UNE": 10133,
    "▁Decoration": 10134,
    "▁complémentaires": 10135,
    "▁venez": 10136,
    "▁jardins": 10137,
    "▁actifs": 10138,
    "▁lol": 10139,
    "▁inscription": 10140,
    "ombe": 10141,
    "▁Gérard": 10142,
    "▁rechercher": 10143,
    "▁Cm": 10144,
    "iène": 10145,
    "▁Cameroun": 10146,
    "▁cess": 10147,
    "▁lux": 10148,
    "▁harm": 10149,
    "▁échange": 10150,
    "▁Not": 10151,
    "▁bases": 10152,
    "▁desser": 10153,
    "0)": 10154,
    "▁93": 10155,
    "▁assis": 10156,
    "▁contactez": 10157,
    "▁acte": 10158,
    "▁réservés": 10159,
    "ek": 10160,
    "onf": 10161,
    "chées": 10162,
    "Part": 10163,
    "▁71": 10164,
    "▁apprécié": 10165,
    "▁fenêtres": 10166,
    "▁Loi": 10167,
    "▁Pel": 10168,
    "▁rêves": 10169,
    "médiaire": 10170,
    "▁From": 10171,
    "▁choisissez": 10172,
    "tia": 10173,
    "issue": 10174,
    "▁contenant": 10175,
    "▁batt": 10176,
    "Ivoire": 10177,
    "▁exceptionnelle": 10178,
    "teries": 10179,
    "▁Corse": 10180,
    "▁couvert": 10181,
    "▁remplir": 10182,
    "add": 10183,
    "éle": 10184,
    "impact": 10185,
    "DES": 10186,
    "seo": 10187,
    "raft": 10188,
    "▁paysages": 10189,
    "▁Dol": 10190,
    "▁Mens": 10191,
    "entiste": 10192,
    "50)": 10193,
    "adapter": 10194,
    "alcool": 10195,
    "10)": 10196,
    "umeurs": 10197,
    "▁quatrième": 10198,
    "▁conduit": 10199,
    "▁fauteuil": 10200,
    "habitude": 10201,
    "ova": 10202,
    "ébastien": 10203,
    "▁ben": 10204,
    "▁acquis": 10205,
    "▁(18": 10206,
    "▁USD": 10207,
    "▁basket": 10208,
    "▁issus": 10209,
    "▁Dar": 10210,
    "▁Back": 10211,
    "▁consulté": 10212,
    "mporté": 10213,
    "▁rassemble": 10214,
    "▁béton": 10215,
    "▁commander": 10216,
    "ito": 10217,
    "▁Communication": 10218,
    "-9": 10219,
    "30,": 10220,
    "▁magie": 10221,
    "▁parlement": 10222,
    "▁diversité": 10223,
    "▁recommandé": 10224,
    "▁inte": 10225,
    "▁personnelle": 10226,
    "rot": 10227,
    "iere": 10228,
    "avi": 10229,
    "▁émer": 10230,
    "▁Vend": 10231,
    "▁hasard": 10232,
    "▁Automne": 10233,
    "ogg": 10234,
    "▁MONT": 10235,
    "▁Vio": 10236,
    "▁dégra": 10237,
    "▁inconn": 10238,
    "▁compose": 10239,
    "ât": 10240,
    "▁tâches": 10241,
    "▁enregistre": 10242,
    "▁Med": 10243,
    "▁Bell": 10244,
    "ineuse": 10245,
    "▁organiser": 10246,
    "▁Lieu": 10247,
    "▁communiquer": 10248,
    "▁Bah": 10249,
    "▁Jésus": 10250,
    "▁actes": 10251,
    "iliation": 10252,
    "▁aliments": 10253,
    "▁cave": 10254,
    "▁différent": 10255,
    "asa": 10256,
    "▁Village": 10257,
    "▁rejoint": 10258,
    "onci": 10259,
    "▁Yves": 10260,
    "▁copro": 10261,
    "▁Copyright": 10262,
    "▁reti": 10263,
    "▁Accès": 10264,
    "▁souci": 10265,
    "▁musicale": 10266,
    "▁->": 10267,
    "matique": 10268,
    "▁broy": 10269,
    "▁spac": 10270,
    "▁about": 10271,
    "▁exceptionnel": 10272,
    "▁globale": 10273,
    "▁versions": 10274,
    "▁baignoire": 10275,
    "ology": 10276,
    "▁pé": 10277,
    "▁collectivités": 10278,
    "▁Locations": 10279,
    "web": 10280,
    "veau": 10281,
    "idth": 10282,
    "▁riz": 10283,
    "▁Camb": 10284,
    "▁annonc": 10285,
    "▁ingrédients": 10286,
    "acquisition": 10287,
    "▁rembours": 10288,
    "expression": 10289,
    "▁transition": 10290,
    "▁Mercedes": 10291,
    "▁confirme": 10292,
    "▁Ko": 10293,
    "▁tournée": 10294,
    "Pré": 10295,
    "▁terroris": 10296,
    "▁Dep": 10297,
    "▁Arc": 10298,
    "▁Tok": 10299,
    "▁confirmé": 10300,
    "alo": 10301,
    "▁Info": 10302,
    "▁dorm": 10303,
    "▁couper": 10304,
    "▁Divers": 10305,
    "▁Projet": 10306,
    "▁cib": 10307,
    "utes": 10308,
    "▁rire": 10309,
    "▁résumé": 10310,
    "▁concerts": 10311,
    "▁classes": 10312,
    "jeuner": 10313,
    "▁routes": 10314,
    "▁Fire": 10315,
    "▁Garage": 10316,
    "▁pomp": 10317,
    "▁Construction": 10318,
    "▁prochains": 10319,
    "rd": 10320,
    "gypte": 10321,
    "▁Maillot": 10322,
    "arrive": 10323,
    "▁moteurs": 10324,
    "▁Complet": 10325,
    "▁Bluetooth": 10326,
    "culaire": 10327,
    "mat": 10328,
    "▁Pass": 10329,
    "rict": 10330,
    "▁Temp": 10331,
    "▁Rendez": 10332,
    "liance": 10333,
    "▁organise": 10334,
    "▁89": 10335,
    "▁exerc": 10336,
    "▁tirer": 10337,
    "▁Pa": 10338,
    "▁fes": 10339,
    "▁Tours": 10340,
    "▁ide": 10341,
    "▁Cross": 10342,
    "▁programmation": 10343,
[...]
